node {
  name: "global_step/Initializer/zeros"
  op: "Const"
  attr {
    key: "_class"
    value {
      list {
        s: "loc:@global_step"
      }
    }
  }
  attr {
    key: "_output_shapes"
    value {
      list {
        shape {
        }
      }
    }
  }
  attr {
    key: "dtype"
    value {
      type: DT_INT64
    }
  }
  attr {
    key: "value"
    value {
      tensor {
        dtype: DT_INT64
        tensor_shape {
        }
        int64_val: 0
      }
    }
  }
}
node {
  name: "global_step"
  op: "VariableV2"
  attr {
    key: "_class"
    value {
      list {
        s: "loc:@global_step"
      }
    }
  }
  attr {
    key: "_output_shapes"
    value {
      list {
        shape {
        }
      }
    }
  }
  attr {
    key: "container"
    value {
      s: ""
    }
  }
  attr {
    key: "dtype"
    value {
      type: DT_INT64
    }
  }
  attr {
    key: "shape"
    value {
      shape {
      }
    }
  }
  attr {
    key: "shared_name"
    value {
      s: ""
    }
  }
}
node {
  name: "global_step/Assign"
  op: "Assign"
  input: "global_step"
  input: "global_step/Initializer/zeros"
  attr {
    key: "T"
    value {
      type: DT_INT64
    }
  }
  attr {
    key: "_class"
    value {
      list {
        s: "loc:@global_step"
      }
    }
  }
  attr {
    key: "_output_shapes"
    value {
      list {
        shape {
        }
      }
    }
  }
  attr {
    key: "use_locking"
    value {
      b: true
    }
  }
  attr {
    key: "validate_shape"
    value {
      b: true
    }
  }
}
node {
  name: "global_step/read"
  op: "Identity"
  input: "global_step"
  attr {
    key: "T"
    value {
      type: DT_INT64
    }
  }
  attr {
    key: "_class"
    value {
      list {
        s: "loc:@global_step"
      }
    }
  }
  attr {
    key: "_output_shapes"
    value {
      list {
        shape {
        }
      }
    }
  }
}
node {
  name: "global_step/IsVariableInitialized"
  op: "IsVariableInitialized"
  input: "global_step"
  attr {
    key: "_class"
    value {
      list {
        s: "loc:@global_step"
      }
    }
  }
  attr {
    key: "_output_shapes"
    value {
      list {
        shape {
        }
      }
    }
  }
  attr {
    key: "dtype"
    value {
      type: DT_INT64
    }
  }
}
node {
  name: "global_step/cond/Switch"
  op: "Switch"
  input: "global_step/IsVariableInitialized"
  input: "global_step/IsVariableInitialized"
  attr {
    key: "T"
    value {
      type: DT_BOOL
    }
  }
  attr {
    key: "_output_shapes"
    value {
      list {
        shape {
        }
        shape {
        }
      }
    }
  }
}
node {
  name: "global_step/cond/switch_t"
  op: "Identity"
  input: "global_step/cond/Switch:1"
  attr {
    key: "T"
    value {
      type: DT_BOOL
    }
  }
  attr {
    key: "_output_shapes"
    value {
      list {
        shape {
        }
      }
    }
  }
}
node {
  name: "global_step/cond/switch_f"
  op: "Identity"
  input: "global_step/cond/Switch"
  attr {
    key: "T"
    value {
      type: DT_BOOL
    }
  }
  attr {
    key: "_output_shapes"
    value {
      list {
        shape {
        }
      }
    }
  }
}
node {
  name: "global_step/cond/pred_id"
  op: "Identity"
  input: "global_step/IsVariableInitialized"
  attr {
    key: "T"
    value {
      type: DT_BOOL
    }
  }
  attr {
    key: "_output_shapes"
    value {
      list {
        shape {
        }
      }
    }
  }
}
node {
  name: "global_step/cond/read"
  op: "Identity"
  input: "global_step/cond/read/Switch:1"
  attr {
    key: "T"
    value {
      type: DT_INT64
    }
  }
  attr {
    key: "_output_shapes"
    value {
      list {
        shape {
        }
      }
    }
  }
}
node {
  name: "global_step/cond/read/Switch"
  op: "RefSwitch"
  input: "global_step"
  input: "global_step/cond/pred_id"
  attr {
    key: "T"
    value {
      type: DT_INT64
    }
  }
  attr {
    key: "_class"
    value {
      list {
        s: "loc:@global_step"
      }
    }
  }
  attr {
    key: "_output_shapes"
    value {
      list {
        shape {
        }
        shape {
        }
      }
    }
  }
}
node {
  name: "global_step/cond/Switch_1"
  op: "Switch"
  input: "global_step/Initializer/zeros"
  input: "global_step/cond/pred_id"
  attr {
    key: "T"
    value {
      type: DT_INT64
    }
  }
  attr {
    key: "_class"
    value {
      list {
        s: "loc:@global_step"
      }
    }
  }
  attr {
    key: "_output_shapes"
    value {
      list {
        shape {
        }
        shape {
        }
      }
    }
  }
}
node {
  name: "global_step/cond/Merge"
  op: "Merge"
  input: "global_step/cond/Switch_1"
  input: "global_step/cond/read"
  attr {
    key: "N"
    value {
      i: 2
    }
  }
  attr {
    key: "T"
    value {
      type: DT_INT64
    }
  }
  attr {
    key: "_output_shapes"
    value {
      list {
        shape {
        }
        shape {
        }
      }
    }
  }
}
node {
  name: "global_step/add/y"
  op: "Const"
  attr {
    key: "_output_shapes"
    value {
      list {
        shape {
        }
      }
    }
  }
  attr {
    key: "dtype"
    value {
      type: DT_INT64
    }
  }
  attr {
    key: "value"
    value {
      tensor {
        dtype: DT_INT64
        tensor_shape {
        }
        int64_val: 0
      }
    }
  }
}
node {
  name: "global_step/add"
  op: "Add"
  input: "global_step/cond/Merge"
  input: "global_step/add/y"
  attr {
    key: "T"
    value {
      type: DT_INT64
    }
  }
  attr {
    key: "_output_shapes"
    value {
      list {
        shape {
        }
      }
    }
  }
}
node {
  name: "tensors/component_0"
  op: "Const"
  device: "/device:CPU:0"
  attr {
    key: "_output_shapes"
    value {
      list {
        shape {
          dim {
            size: 2262
          }
        }
      }
    }
  }
  attr {
    key: "dtype"
    value {
      type: DT_DOUBLE
    }
  }
  attr {
    key: "value"
    value {
      tensor {
        dtype: DT_DOUBLE
        tensor_shape {
          dim {
            size: 2262
          }
        }
        tensor_content: "}[o\225S6\334\277+\325\352\004\370u\232?$`\003\270\005\273\251\277\001\177U\2760\250\335?\010\261_\331\321\310\334\277UE)\314\340\337\336?\333DzM9\352\346\277\202\270\234\333H\311\351?`\227F\370\241\233\302\277\272`>\237g\264\350\277\001\331^k\020Z\326?U\2372y\300\221\327?\023>?\002\300\256\301\277\376\205\343A\000\263\322?1^\311\204\371\310\353\277V/\274\201P\337\341?\216\243\037\007\177\216\005\3001\347\212\331x\353\343\277\263=\007\36518\337\277.\230\277 \271\337\357?\260\361\031O\361\233\320\277k\2223\236\214\'\361?\022\374\356\201\303y\273\277Fo\361\223\371P\353\277\252\360M\356\203\210\303\277\327\321\353\022\t\250\356?Y\323w4\351\357\367\277\356\036\366\344\264\357\360\277\340+\346!9\016\333\277]w3\347\201\000\336\277\2744\244\3452\374\344\277Z&\363]\371\226\373\277\203\323\\\t!\227\372?\273\342\237J\003\233\266\277\273\342\237J\003\233\266\277\254\270\201\260\200p\334?\254H\013\271\020\276\346?\370\026a,\370\251\277\277Cv\177\027\311[\340\277U\362\255\242\3208\333?\205\240\021\211Q\033\322\277\260a\220FaN\346\277\264\260\225/bz\307\277ZHA\017\241o\341\2778\235\023q|\370\246?\227u\035\245d\303\361?i\013\247>\352\031\341\277\252\277\0174P{\321?He\302#\215\001\324\277q\022,\317\264\001\343\277/\270\3221\331z\344\277,\237M\244\210\352\344?\204++\026y\013\342\277`\227F\370\241\233\302\277\346\373\241\242^\343\340\277\000i\350s\240\247\340?U\371;&\240C\320?\363\347\330o\376Z\260?\261\352\213\313!\221\333\277\301X\007\254<_\362?o)\242\362M0\324\277m\345\256\307\234\316\364?\260a\220FaN\346\277\320\336u\351{\312\330\277\014\367\020Q\203\004\340\277\017\251sX\263\322\267\277\030\002\340\353\214\213\361\277UE)\314\340\337\336?T32\302_Z\304?U\362\255\242\3208\333?\227\310\230\316tj\365?c\311P\023C\274\261\277,\272\r\322`\270\365?\326\330y\226\330\262\343?\320B\003\331T\231\260?\255\206.\307\356\343\303?UE)\314\340\337\336?\261D\225x\001C\324\277\353\2328L\233\365\275\2772\312\217\013\031\340\321\277\200\022\246\210({\342?\254\275\324\223\310=\360?\261D\225x\001C\324\277\005{\337}!-\353\277U\2372y\300\221\327?\264\260\225/bz\307\277\t$\356\023\002\013\305\277\002\327#\313\210\034\365?\273\342\237J\003\233\266\277n\326,t\350\261\351?*\026\214O\t\310\354?\227,\273\320\330\375\003@\202-f\266\000I\363?UE)\314\340\337\336?D8E\034u\316\365\277\230\033\024\370\204\021\371?\330\3639\304\260\200\364?U\371;&\240C\320?\333DzM9\352\346\277+\325\352\004\370u\232?+\362\310\315\230\221\350?\007\316Z\2471\324\356\277\265\n\237\334A,\300\277ZHA\017\241o\341\277UL\267O\260\352\323?\007^\344\257\301!\331\277\2565)@5\224\n\300]w3\347\201\000\336\277\026\255\332\372\022\002\276\277\245L\201\371\0379\311?\255\233\206\342 e\352?X\325\262\324p-\351?\233hv6\321\020\301?\374\277\331\335\277\311\306?s\261\262\310\257\335\020\300J\001(\247\2769\265?\244\030j\030\343\251\363\277\363\347\330o\376Z\260?\254\356\001\0141\014\356?n\213\245\032\275\034\374?\374e\3200\340\027\316?\233\244\017}ET\376\277\302\253\202\325L\006\366?`\227F\370\241\233\302\277\\\321<\224a\262\326\277\245L\201\371\0379\311?9\277\271\236\334\353{?\326\240\276\232\240\331\360?\256\212\225iN\023\312?\230\364\377\324\240$\001\300\004\251\201$\325$\010\300\255\t\3029\t\332\376?\217\006\026\355\016;\340\277\254\270\201\260\200p\334?\202e!\2628\"\346?\331\263\333\025K\035\306\277\230n\217!\225\270\374?\202e!\2628\"\346?\001\177U\2760\250\335?\261D\225x\001C\324\277\324\363\356Q\244!\263?\007^\344\257\301!\331\277\317\223A\276\301\017\253?\014\312\344f\"Y\314\277m\345\256\307\234\316\364?BU@\352\324\331\367?\006\013i\206\261z\325\277\263=\007\36518\337\277c\311P\023C\274\261\277$`\003\270\005\273\251\277U\371;&\240C\320?\202\355\007\010\233\345\304\277VY2\210s\301\301\277U\2372y\300\221\327?\261D\225x\001C\324\277\374e\3200\340\027\316?8\323O<k\005\365\277\033\000\245K\005N\320\277`==K\302\351\311\277\037\271m\247\303\200\353?9\277\271\236\334\353{?.eW\010\311\323\340\277\245\020\252\315\224\217\301\277\006\013i\206\261z\325\277\035\353\033k\023\000\211\277\202\270\234\333H\311\351?/C\tW!\373\372\277\0029U\315\343\327\307\277U\371;&\240C\320?\001\350\312\243\334\010\000@,\237M\244\210\352\344?\204++\026y\013\342\277\221E\2664x\317\333\277/\360\215-\021T\367\277\332\272oD\305P\344\277\254\020P\275\330\344\363?7\302\213\313\366\210\003@\273\342\237J\003\233\266\277k\2223\236\214\'\361?\336D\312\357\205\200\003\3004q\233\215\227\255\337?W\360r\002I\373\371?\332\361\376#)C\343\277U\2372y\300\221\327?\001\350\312\243\334\010\000@E\371<W\255pb?qV\324\207Y\004\301?\254\270\201\260\200p\334?\243#\222\361\032\342\006@\252\022\213]`\"\325?9\277\271\236\334\353{?X-\201\341\310\241\360\277\260\264\013pq\365\351\277U\362\255\242\3208\333?1\347\212\331x\353\343\277,g\222\250P\021\362?\314`\205\245\322/\000@\3352zP\263A\351?\260\361\031O\361\233\320\277R=\342\315\212\363\250\277\003\272(\375(\021\363\277\000i\350s\240\247\340?,\237M\244\210\352\344?T32\302_Z\304?\027\243I+$\354\327?\002\274c\235\260N\344?`==K\302\351\311\277\363\347\330o\376Z\260?\301X\007\254<_\362?\264k\371=2\306\370\277+ED\367\2508\354?\022\374\356\201\303y\273\277\204++\026y\013\342\277[~\301jQ\013\323\277\326\330y\226\330\262\343?\036t\260\277\300\376\266\277\376\205\343A\000\263\322?\254\275\324\223\310=\360?\333DzM9\352\346\277\201\027\347\362\004b\235?\010\261_\331\321\310\334\277\003}\032\036\251j\374?\200\022\246\210({\342?\254\270\201\260\200p\334?`\227F\370\241\233\302\277T32\302_Z\304?\3713\306\025?\367\276?\007^\344\257\301!\331\277F${|\231\372\261\277`==K\302\351\311\2770\013N[\351!\350\277}b\375\030#A\321\277\016\377!\271\210\246\334\277\241|\230\325\256<\255\277\273\342\237J\003\233\266\277\203\342\022\342k\253\311\277\002*\237\364\230\303\370?\342o\302_t\010\355\277\374\277\331\335\277\311\306?Z\233\2748\261\026\345\277\363\347\330o\376Z\260?,\237M\244\210\352\344?\374\277\331\335\277\311\306?\006\270\355\\\241\323\321\277\301\274)\256\240\362\000@\027rV\343\374=\367?/\270\3221\331z\344\277\005(dT\021\206\347\277\267V\214\202\202\310\316\277\260\361\031O\361\233\320\277\376\205\343A\000\263\322?.eW\010\311\323\340\277\357j\343\212\365\213\377\277\221E\2664x\317\333\2779W\276\255\242Z\351?\246\204M7#Q\320\277\351\373\333\322\237\003\336\277\022\374\356\201\303y\273\277\334\317\373\344\215\311\276\277`==K\302\351\311\277HJ\037\216\325\303\331\277,g\222\250P\021\362?\201\226+\347\3257\344\277\355A\223\365\373g\332?\202\200\341\337\020\360\366?X-\201\341\310\241\360\277\210\376\201\330\220\374\320\277\370^/\332\202\231\001\300\227u\035\245d\303\361?\330+\365\277\350Y\347?\344\3152\257\263\351\353\277l\274\222\2679\242\343\277$`\003\270\005\273\251\277_\301\216$\331\256\327\277\326\330y\226\330\262\343?\202\013\030\005Yp\355?\033\376+\306f\252\244\277+ED\367\2508\354?W\360r\002I\373\371?\260\361\031O\361\233\320\2779\375\256U\030\200\327\277\005{\337}!-\353\277\302\376\375\376\\\255\371?,\237M\244\210\352\344?Z\233\2748\261\026\345\277\006\270\355\\\241\323\321\277T32\302_Z\304?\302\376\375\376\\\255\371?\327F\265\355\300\'\370?W\256\236\261\214@\001@\327\2310\027\321\316\373?\276\356\251\237\220T\310\277=o4\267?\224\333\277\254\356\001\0141\014\356?\254H\013\271\020\276\346?\006\270\355\\\241\323\321\277X\235\367\3308T\366?\261\352\213\313!\221\333\277\016\247\346\310\346\023\000\300\001,\332\224 \001\332?\262\314\270\351x$\206?_\272\306p\310\203\345\277A\257I\227\264\213\360?\265\n\237\334A,\300\277z\204G\025\365\323\251\277\003\272(\375(\021\363\277\251g\214\231\004f\313\277\327\232V\210\372\214\326\277\252\277\0174P{\321?\217\007Y\366X\211\301\277.J\227\332\360\005\360\277Z\233\2748\261\026\345\2779\277\271\236\334\353{?`\227F\370\241\233\302\277\035\353\033k\023\000\211\277\263=\007\36518\337\277GlVR\0075\342?/\270\3221\331z\344\277L\354ep\245v\301\277\244\221\315H\003W\013\300w\376\007\037\035\203\301\277\260\254.\215\002K\301\277}\200\226m\004\221\265?\254\356\001\0141\014\356?T\331(\025\200\250\313?\333=\373g\031+\336?+ED\367\2508\354?+\325\352\004\370u\232?\254H\013\271\020\276\346?bR\372\250\276}\000@[A\263\213\321d\354\277\343\026x\353\036\037\003\300\3713\306\025?\367\276?\215\210_\331\246\300\004@[A\263\213\321d\354\277\t$\356\023\002\013\305\277\006\270\355\\\241\323\321\277\355;\361\262\024\373\362?\004\202m\001\3617\340\277\273\342\237J\003\233\266\277\273\342\237J\003\233\266\277\254\365\217\217\000\027\343?-`\004%\201\006\375?g\367;#\325q\257?\004\202m\001\3617\340\277\312\244\216\353k\377\340\277n\213\245\032\275\034\374?\355;\361\262\024\373\362?\273\342\237J\003\233\266\277\376\205\343A\000\263\322?\266\2324;\'\313\354?9\277\271\236\334\353{?+ED\367\2508\354?\252\022\213]`\"\325?\264\260\225/bz\307\277\260a\220FaN\346\277U\2372y\300\221\327?\326\205\376l\310\013\340?\256\336\031lg\350\321?V/\274\201P\337\341?[~\301jQ\013\323\277Z\233\2748\261\026\345\277\355\341\347\0055I\372?\001,\332\224 \001\332?\333 \267\313\310\263\342\277\355;\361\262\024\373\362?\260\361\031O\361\233\320\277\177K\207\365\211\022\340\277.eW\010\311\323\340\277T\331(\025\200\250\313?\002\017\337\306\300\365\347?\333q\213\225N\350\277\277\374\277\331\335\277\311\306?\327,\201\356F\034\360?.eW\010\311\323\340\277X\325\262\324p-\351?\376\205\343A\000\263\322?x\30656oB\341\277\255\233\206\342 e\352?\360\027ha\345\344\373\277\230\033\024\370\204\021\371?\353_\227\234d\241\340?\001\177U\2760\250\335?\001\331^k\020Z\326?n\336 D\315\303\377?\316\\\305m!G\372\277\226?\272\341\324\267\346?\376\205\343A\000\263\322?9\277]mN\213\337?\234\032w\336~\030\272?\010:!.Q\353\324\277VJ|\257(\255\362?\\\321<\224a\262\326\277]$\270\275qY\332\277\2753\225a\177\245\327\277[~\301jQ\013\323\277\245L\201\371\0379\311?\022\374\356\201\303y\273\277\001\350\312\243\334\010\000@\273\226\276\372\027P\332\277\205~\246?\211\262\345\277A\002\305\300\3042\364?\353\307j\341\246\311\332\277\260\361\031O\361\233\320\277\325\352\177>\t\204\332?\010\261_\331\321\310\334\277\027\326x\345`\321\005@\001\331^k\020Z\326?,g\222\250P\021\362?\273(\240;Pk\334\277m8*\361\254u\370?\302\376\375\376\\\255\371?\273\342\237J\003\233\266\277\002\204\250\241xu\361?\343\026x\353\036\037\003\300\001,\332\224 \001\332?\005\325\350*\001\337\343\277UL\267O\260\352\323?\257\016\025\035Q\247\342\277\326\020R*1\034\355?-\r\211\373p_\371?\202\270\234\333H\311\351?\n\316\335S\252p\341?\005\325\350*\001\337\343\277\245L\201\371\0379\311?\260a\220FaN\346\277\246\22251\250\237\217\2779\277\271\236\334\353{?\t$\356\023\002\013\305\277`==K\302\351\311\277[\3567b\301\275\350\277\354Z\312\222\n\373\237\277Q\314\017<?\230\354\277\203\323\\\t!\227\372?\254\270\201\260\200p\334?=\203\017\231\346\246\343\277\035\353\033k\023\000\211\277\npm\004k\217\342?\204`hh\337X\342?\330\3639\304\260\200\364?\316\307-\240\316j\262\277\350\007\303\344a\004\360\277\272<{\035\367}\344\277o\267\014!\351\326\007\300K\030\006\325\204W\356\277\274\215\236\016_W\320\277T\331(\025\200\250\313?.\230\277 \271\337\357?\006\013i\206\261z\325\277\321\263\352\263\372h\342\277X\325\262\324p-\351?X\325\262\324p-\351?+\362\310\315\230\221\350?\006\013i\206\261z\325\277\202-f\266\000I\363?T\331(\025\200\250\313?V/\274\201P\337\341?ew\352\030\221\224\304\277\305\'N\224V\321\336\277\021\250\002u}\265\333?\036\371\026\3105C\333\277\276R\200]Z\217\271?\261\227\020\242\021\352\327\277\332\033GP`V\350?\225\355\201\301\016_\324\277u\001;V\342\257\322?@\222\036KM\276\253?\254\275\324\223\310=\360?\022\374\356\201\303y\273\277\347\363\312j\232a\341\277U\362\255\242\3208\333?h\rW\321}\240\021\300U\371;&\240C\320?\362\237\003E;I\331?\3713\306\025?\367\276?\246\222\335\236D\247\304\2779\277\271\236\334\353{?\330\3639\304\260\200\364?\303\0239\202n\236\331\277[~\301jQ\013\323\277UE)\314\340\337\336?\022\374\356\201\303y\273\277\255c\313\346\350\213\367?9\277\271\236\334\353{?\376\205\343A\000\263\322?\227u\035\245d\303\361?\234\032w\336~\030\272?\230n\217!\225\270\374?\004\251\201$\325$\010\300\253])\244\001\037\340\277.eW\010\311\323\340\277\007\316Z\2471\324\356\277]w3\347\201\000\336\277\302\370\225\354\266`\337\277\004\251\201$\325$\010\300\326\330y\226\330\262\343?U\371;&\240C\320?<\234s\331@a\257\277\002;F\315\354\257\003@\376\205\343A\000\263\322?\032\213\276\330,>\340\277\005\325\350*\001\337\343\277`\227F\370\241\233\302\277\316\004\277}\200\235\277\277\273\342\237J\003\233\266\277T\331(\025\200\250\313?X\325\262\324p-\351?\001\265\325\031\341C\357?U\371;&\240C\320?\255\t\3029\t\332\376?\355\216l\334$\242\366?V\2027\253`\206\345?\205\321!i\231Y\351\277\027\037\333\271\354\226\363?T32\302_Z\304?U\302\243S7.\336?\302Qy(mT\375?\277\031V\"\010\214\262?\235\003xc\302$\315?\355\216l\334$\242\366?/\270\3221\331z\344\277K\347\365\364<\031\327\277\301N\373~\233\310\332?UE)\314\340\337\336?\255\t\3029\t\332\376?\257\016\025\035Q\247\342\277[\3567b\301\275\350\277\367Co\254\252\313\000@c\311P\023C\274\261\277\027\037\333\271\354\226\363?\000i\350s\240\247\340?\t$\356\023\002\013\305\277\225\267;\226\237\343\337\277\322!\ts\302M\340\277\240\237\241\245\370\351\273\277\363\347\330o\376Z\260?\261\227\020\242\021\352\327\277k\2223\236\214\'\361?\254\275\324\223\310=\360?\243#/\300\n\"\254?`==K\302\351\311\277\254\020P\275\330\344\363?[~\301jQ\013\323\277\245\246\212\246\377\352\301?Z\233\2748\261\026\345\277.eW\010\311\323\340\277}\346\210\"{&\354\277}\257\371B\0274\355\277\005\325\350*\001\337\343\277s\315\0223\332\341\310?\014\312\344f\"Y\314\277I\227\255\002\362\236\304?\204++\026y\013\342\277\001\177U\2760\250\335?\\\321<\224a\262\326\277$`\003\270\005\273\251\277ZHA\017\241o\341\277`==K\302\351\311\277\005(dT\021\206\347\277T\331(\025\200\250\313?U\371;&\240C\320?\005\325\350*\001\337\343\277\000i\350s\240\247\340?\327~p\351\370\000\353?\202-f\266\000I\363?,g\222\250P\021\362?\273\342\237J\003\233\266\277X-\201\341\310\241\360\277.eW\010\311\323\340\277\006\013i\206\261z\325\277\261D\225x\001C\324\277Y\200\374\n\331H\364\277\245\246\212\246\377\352\301?T32\302_Z\304?\332\361\376#)C\343\277\r\023\375\232/\271\344\277/\270\3221\331z\344\2770\013N[\351!\350\277)%\361\n\235T\341?m\345\256\307\234\316\364?\365\207x\362C\233\341\277\357\263E_\201Q\r\300\027\037\333\271\354\226\363?\257F\320\030\211\200\365\277\263=\007\36518\337\277\376\205\343A\000\263\322?[~\301jQ\013\323\277\3713\306\025?\367\276?\261D\225x\001C\324\277ZHA\017\241o\341\277m\345\256\307\234\316\364?\376\207iT\224O\305\277UE)\314\340\337\336?Y\022\373\3431\364\354\277\027\037\333\271\354\226\363?Y\311^\337d\016\002\300\261\352\213\313!\221\333\277\255c\313\346\350\213\367?\214+\034x\311\277\305\277\014\033\324\322\363:\344\277~#\227\001\373\314\322\277.\346t\330\214r\001\3009\203BL\357\244\013\300\355\341\347\0055I\372?U\371;&\240C\320?R\2247\250\346.\343\277\254\270\201\260\200p\334?\3713\306\025?\367\276?U\362\255\242\3208\333?\254H\013\271\020\276\346?V\2027\253`\206\345?FD2\331\341\367\300?\327F\265\355\300\'\370?\005\325\350*\001\337\343\277\347\303\003?G\232\324\277T\331(\025\200\250\313?I\323\340\342T\346\321\277\3564c/E\360\375?UL\267O\260\352\323?\030\030M6\035\214\376?\035\353\033k\023\000\211\277+\325\352\004\370u\232?J\027\275 \220\340\343\277\2708N\253\330n\333\277\203&\33021>\376?\202\013\030\005Yp\355?\245\246\212\246\377\352\301?U\362\255\242\3208\333?n\310\263\371<\303\362\277CcI\236\356]\250\277\251e\006\207p\311\330?\006\270\355\\\241\323\321\277\265\n\237\334A,\300\277\220%\266\t?f\243\277\363X\300J\244*\342\277\254\270\201\260\200p\334?\273\342\237J\003\233\266\277]$\270\275qY\332\277\304f\264\253~E\335\2771\261D\256\tp\357\277\254\020P\275\330\344\363?Y\034\332\010u\265\005\300&\263\331^MX\316\277o\n\210J\371}\013\300\3310e;Q\267\341\277\257\016\025\035Q\247\342\277T\331(\025\200\250\313?\3564c/E\360\375?\035\353\033k\023\000\211\277\254H\013\271\020\276\346?\203V\266K\372l\330\277\035\353\033k\023\000\211\277UE)\314\340\337\336?\301\254\250Fv\304\320\277n\033/#Mj\366\277\265\n\237\334A,\300\277\212I\362DF*\321?S\222\345\032\351\211\344?\327\321\353\022\t\250\356?\331\354\253@\341u\377?\240(\030\210k\255\362\277\006\270\355\\\241\323\321\277,\272\r\322`\270\365?\267V\214\202\202\310\316\277\316\t\307\356\273\013\322\277\3713\306\025?\367\276?\261\352\213\313!\221\333\277\273\342\237J\003\233\266\277\205~\246?\211\262\345\277\327\321\353\022\t\250\356?,L\322zxC\341?\001,\332\224 \001\332?\327\321\353\022\t\250\356?\355\216l\334$\242\366?J\003\256\271R\326\327?`==K\302\351\311\277\017]\222\010\310\207\333\277\332\030\023G\r0\013\300\002\274c\235\260N\344?\202\270\234\333H\311\351?\357j\343\212\365\213\377\277+ED\367\2508\354?\230\033\024\370\204\021\371?c\3005\000\247\362\004\300\275Dw<\242\253\273\277\010\261_\331\321\310\334\2779\277\271\236\334\353{?\267\030\316\266n\265\001@+\325\352\004\370u\232?\326\330y\226\330\262\343?\250\006\201\010\323h\323\277X\032\322\033\366u\354\277\213\3230\323P\273\327\277`\227F\370\241\233\302\277H\244.\346_\236\353?n;\343c\300KU?\252\277\0174P{\321?\251\301\225F\344\027\304\277\272<{\035\367}\344\277T\331(\025\200\250\313?\254\356\001\0141\014\356?\n\202^cA\354\303\277w\263i\330{\206\346\277V\2027\253`\206\345?\200\022\246\210({\342?\\\321<\224a\262\326\277.\272\302_TY\264?X-\201\341\310\241\360\277\343\026x\353\036\037\003\300Z&\363]\371\226\373\277\005m\314\300\252B\362\277\330+\365\277\350Y\347?\376\205\343A\000\263\322?\212g\230&\035s\274\277k\2223\236\214\'\361?[~\301jQ\013\323\277e\'\301b\202\235\260\277,L\322zxC\341?VJ|\257(\255\362?\326\240\276\232\240\331\360?\230\033\024\370\204\021\371?\257\016\025\035Q\247\342\277\344i\363\024/\306\006\300h\023\270\246\357\273\335\277\200\022\246\210({\342?$`\003\270\005\273\251\277.eW\010\311\323\340\2770\013N[\351!\350\277X\235\367\3308T\366?\202\200\341\337\020\360\366?\232\376\030*%\006\367\277XN\223\257;F\014\300UE)\314\340\337\336?V/\274\201P\337\341?\376\252\351\314\2727\350\277`\360F\314x\037\327\277\001,\332\224 \001\332?8\235\023q|\370\246?\t$\356\023\002\013\305\277\254\020P\275\330\344\363?Y\323w4\351\357\367\277.\235\022\004\001\255\363\277\374\277\331\335\277\311\306?E\336;o\225\034\375\277n\213\245\032\275\034\374?+\325\352\004\370u\232?\267V\214\202\202\310\316\277cc\265\223\3146\234?\245L\201\371\0379\311?\241n!\003\345\231\020\300\255\206.\307\356\343\303?\326\330y\226\330\262\343?\333\227\365vI\221\352\2770\013N[\351!\350\277\3713\306\025?\367\276?+\362\310\315\230\221\350?\004V\006\373\304}\004\300U\371;&\240C\320?+\362\310\315\230\221\350?\336Y-\346\242a\276?Ez\031m1\211\016\300\002\017\337\306\300\365\347?\327F\265\355\300\'\370?\031U[\025\2352\365\277\370M\274\206\305\244\312\277\333\236\275*Z\274\334\277J\230\3021P\036\273?\006\013i\206\261z\325\2779\277\271\236\334\353{?\260a\220FaN\346\277\252\277\0174P{\321?\005(dT\021\206\347\277\332\030\023G\r0\013\300\254H\013\271\020\276\346?\264\260\225/bz\307\2771\365\346\273\003J\344?\212\315\253(\212\336\306\277\202\200\341\337\020\360\366?T32\302_Z\304?z\276^\376\252\300\341\277\177\034\t~+\302\335\277\200\022\246\210({\342?\275\341.g\315}\332?\261D\225x\001C\324\277.eW\010\311\323\340\277\354Z\312\222\n\373\237\277,\272\r\322`\270\365?/\270\3221\331z\344\277.\230\277 \271\337\357?\330+\365\277\350Y\347?T32\302_Z\304?D\3736=\365\'\377?\265\365\200\361P\313\326\277p\211jz5\337\352\277\264\260\225/bz\307\277\260a\220FaN\346\277\355\216l\334$\242\366?\001\177U\2760\250\335?\205~\246?\211\262\345\277y[h\030\033\024\007\300\363\347\330o\376Z\260?`==K\302\351\311\277\330\252\327\357$\273\006@\260a\220FaN\346\277\202\013\030\005Yp\355?,L\322zxC\341?U\2372y\300\221\327?\273\342\237J\003\233\266\277\261D\225x\001C\324\277\007s\002\233\262\202\302\277C\374\\\256\036\346\331\277\376\205\343A\000\263\322?\224\356\220E\302\265\341\277-`\004%\201\006\375?\254\365\217\217\000\027\343?\267V\214\202\202\310\316\277.\230\277 \271\337\357?\261D\225x\001C\324\277\333DzM9\352\346\277\3713\306\025?\367\276?\000i\350s\240\247\340?\224\020\002:5G\347?/\270\3221\331z\344\277\355;\361\262\024\373\362?ZHA\017\241o\341\277\301\274)\256\240\362\000@P\307\231\025,\022\331\277J\001(\247\2769\265?\242\200\354?nJ\343?/\360\215-\021T\367\277\3713\306\025?\367\276?\305\010\373\215N\370\304\277\203&\33021>\376?`\227F\370\241\233\302\277o\267\014!\351\326\007\300\\\321<\224a\262\326\2778\224\000\022\271\370\303\277,L\322zxC\341?\205$\235\222\251\000\355\277,\272\r\322`\270\365?\230\253\235\000\025_\363\277\001\177U\2760\250\335?\255c\313\346\350\213\367?\002\274c\235\260N\344?\t_\371\336\037\241\337?:\354\'\370,p\244?\251e\006\207p\311\330?X\325\262\324p-\351?\266\347\r\"P\005\371\277\273\342\237J\003\233\266\277,\237M\244\210\352\344?\335\342\223\275\352\215\305\277\236\034\367Eh\214\343\277\254H\013\271\020\276\346?\202\200\341\337\020\360\366?\344\261Fe\0075\347\277\002\017\337\306\300\365\347?3z\n\2412K\270?\3713\306\025?\367\276?\355\216l\334$\242\366?\007^\344\257\301!\331\277\360\027ha\345\344\373\277A\257I\227\264\213\360?T32\302_Z\304?[\3567b\301\275\350\277]w3\347\201\000\336\277\261D\225x\001C\324\277d\274\325\332\177\345\323\2771\261D\256\tp\357\277C\345\311\362d\'\362\277\261\227\020\242\021\352\327\277\255\215*\000\226\006\352\277\002\017\337\306\300\365\347?T32\302_Z\304?\333DzM9\352\346\277\326\205\376l\310\013\340?\\\321<\224a\262\326\277\260\361\031O\361\233\320\277)\304S/Co\332\277\327\321\353\022\t\250\356?_\333\356\260F\236\340?\252\277\0174P{\321?\035\353\033k\023\000\211\277\001\177U\2760\250\335?\372\004&-\243\347\010\300)\nNu\345\026\347?\261\227\020\242\021\352\327\277\300vb\033\007I\334\277\006\270\355\\\241\323\321\277\022\374\356\201\303y\273\277\357`\3125q\252\t\300\233hv6\321\020\301?\014\312\344f\"Y\314\277\247w\322\376_z\302?O\202FI\020\322\301?,\237M\244\210\352\344?.\230\277 \271\337\357?~\370\216!\317\377\360?]w3\347\201\000\336\277\252\277\0174P{\321?\332\361\376#)C\343\277\261D\225x\001C\324\277\261\352\213\313!\221\333\277\027\037\333\271\354\226\363?\260\361\031O\361\233\320\277\277\017\322\337\016o\323\277\000i\350s\240\247\340?\311K`=\251\254\301?\205}c6?d\324?:\025\037\264\n\221\260\277\327\321\353\022\t\250\356?\241/\375\323\234h\333\277\205\266a;\301\213\370\277k\2223\236\214\'\361?,g\222\250P\021\362?>\243\\\332Gb\305\277\020\215Y4\033O\350\277UL\267O\260\352\323?V/\274\201P\337\341?\035L\222\361E\352\336\277VJ|\257(\255\362?+ED\367\2508\354?\355\216l\334$\242\366?\032\373Qh\275\200\374\277\3564c/E\360\375?\260\361\031O\361\233\320\277\001,\332\224 \001\332?[~\301jQ\013\323\277\205$\235\222\251\000\355\277\363\347\330o\376Z\260?\265\n\237\334A,\300\277\3713\306\025?\367\276?\363\347\330o\376Z\260?\016\372a\362\366\272\003\300\032T/\371\310K\341\277k\2223\236\214\'\361?.eW\010\311\323\340\277\263=\007\36518\337\277\002*\237\364\230\303\370?\326\205\376l\310\013\340?ZHA\017\241o\341\277\030\013KJR\343\274\277A\257I\227\264\213\360?\006\270\355\\\241\323\321\277\330\037\241\312\334:\000\300\205~\246?\211\262\345\277\265\n\237\334A,\300\277+\362\310\315\230\221\350?\202\200\341\337\020\360\366?k\2223\236\214\'\361?N\313\371:S\037\n\300\010\261_\331\321\310\334\277\203\323\\\t!\227\372?\261D\225x\001C\324\277-\r\211\373p_\371?\264\260\225/bz\307\277\000i\350s\240\247\340?\001bZ\360\320\234\353?\r\307I%0=\323\277\324\036Zq\317T\232\277[~\301jQ\013\323\277\327~p\351\370\000\353?\255c\313\346\350\213\367?\022\374\356\201\303y\273\277\005`\037PI_\372\277,L\322zxC\341?\000%Ff\246\315\353\277TZ*\037\261\260\361?UE)\314\340\337\336?X\325\262\324p-\351?9\335K\371\316V\004\300\003}\032\036\251j\374?\022\374\356\201\303y\273\2779\277\271\236\334\353{?\327\2310\027\321\316\373?\354Z\312\222\n\373\237\277\004\202m\001\3617\340\277\365\216@\246T\306\323\277\230n\217!\225\270\374?A\002\305\300\3042\364?\005\325\350*\001\337\343\277E\344\243\201;i\327?R=\342\315\212\363\250\2778\235\023q|\370\246?W\360r\002I\373\371?.eW\010\311\323\340\277%R\316\315\033[\326\277]w3\347\201\000\336\277\267V\214\202\202\310\316\277\331)\272\037a\034\366\277\342\245\010\213\343\203\341\277\253])\244\001\037\340\277\\\321<\224a\262\326\277\252\022\213]`\"\325?\\\321<\224a\262\326\277T\331(\025\200\250\313?\334\216\325\212\220\230\340\277UE)\314\340\337\336?X\032\322\033\366u\354\277\261\227\020\242\021\352\327\277\"k\234)]W\337\277\202\270\234\333H\311\351?\203c\346\021\261\344\364\277\366\264\211:Y\231\272\277\254\275\324\223\310=\360?\027\037\333\271\354\226\363?+\325\352\004\370u\232?\233\243\335\265\306D\301\277\016\336\221n\335\234\311?\000i\350s\240\247\340?$\335\0255/\032\261\277\226\337Yd\032\370\267\277/C\tW!\373\372\2771^\311\204\371\310\353\277BU@\352\324\331\367?\355;\361\262\024\373\362?\027B\246\244\037\336\307\277\001,\332\224 \001\332?\261\352\213\313!\221\333\277\001\177U\2760\250\335?\3564c/E\360\375?]w3\347\201\000\336\277T32\302_Z\304?\001\177U\2760\250\335?[~\301jQ\013\323\277\266\273\212U\221\264\302\277\243]rr\362\212\351?\245\246\212\246\377\352\301?\327~p\351\370\000\353?#\034Nrk\277\344\277X(.\376\200\324\354?C\374\032\306>\243\020\300\014\312\344f\"Y\314\277A\257I\227\264\213\360?\254\270\201\260\200p\334?\261D\225x\001C\324\2779\277\271\236\334\353{?\245L\201\371\0379\311?\354Z\312\222\n\373\237\277\252\277\0174P{\321?\234\032w\336~\030\272?\022\374\356\201\303y\273\2779\277\271\236\334\353{?\006\024\211rjs\337\277\201\226+\347\3257\344\277\260\361\031O\361\233\320\277\247\327\310`3\370\323\2770\013N[\351!\350\277)G\220\331\373\264\301\277\234\032w\336~\030\272?K\030\006\325\204W\356\277\202e!\2628\"\346?\254\365\217\217\000\027\343?\373\235\242\031\216X\356?\330+\365\277\350Y\347?\271\206\t\016W*\006\300\254\365\217\217\000\027\343?\333\352p\240Y8\356\277\007^\344\257\301!\331\277\313\244\310\033\255\037\336\277\270&\277\253\204\330\270\277%5\237z%X\340?VJ|\257(\255\362?W\256\236\261\214@\001@\035\353\033k\023\000\211\277\235j\374He\255\323\277\001\177U\2760\250\335?\022\340\316\262\200\315\302\277\267V\214\202\202\310\316\277]w3\347\201\000\336\277$\350\0174{\203\t\300\206\\X\216\341\331\377\277\t$\356\023\002\013\305\277\006\270\355\\\241\323\321\277\301X\007\254<_\362?[\3567b\301\275\350\277\005\263\232yY\006\376\277\261D\225x\001C\324\277[~\301jQ\013\323\277\261\352\213\313!\221\333\277\225\205P\267:F\277\277\304\216\207\007\355\372\363\277\254\356\001\0141\014\356?yo\375`\322\366\252?\306Za\210\000 \262\277\333EULVI\300?n\213\245\032\275\034\374?\251e\006\207p\311\330?\327\321\353\022\t\250\356?\363\311E\306\3073\345?\200\022\246\210({\342?\273\342\237J\003\233\266\277\254H\013\271\020\276\346?\001\331^k\020Z\326?\260a\220FaN\346\277\230n\217!\225\270\374?\374\277\331\335\277\311\306?\355^\274\235GB\307\277UN=bD\207\306\277#B\031\341Z5\002\300\273\342\237J\003\233\266\277\321\371\030\1773\010\323\277\334C7D\357\233\325?X\325\262\324p-\351?\035\353\033k\023\000\211\277\035\353\033k\023\000\211\277\243zm@R\226\333?\354Z\312\222\n\373\237\277\002\017\337\306\300\365\347?Z&\363]\371\226\373\277bR\372\250\276}\000@\010\261_\331\321\310\334\277\001,\332\224 \001\332?\022\374\356\201\303y\273\277\326\330y\226\330\262\343?T32\302_Z\304?M\261\376\360\257B\301?=\245z\342\256\017\320\277\3713\306\025?\367\276?z\204G\025\365\323\251\277\323\207V\245p\331\327?\265\n\237\334A,\300\277\251\254w[\363\266\332\277\007\316Z\2471\324\356\277\017P\021%Z\210\344?8\323O<k\005\365\277G\360\333\260\264\361\343\277%\024}\345Qf\336?\032\250\326>\255\331\370\277V/\274\201P\337\341?\310o#\277\031\343\305?.eW\010\311\323\340\277U\362\255\242\3208\333?\224% %&\250\340\277\245\246\212\246\377\352\301?\231\254\225\227RN\303?.\235\022\004\001\255\363\2773U\343\310\201\360\336\277\353\334\216wBS\355\277T\331(\025\200\250\313?0\013N[\351!\350\277B\273p\204b\325\310?X(.\376\200\324\354?\004\202m\001\3617\340\277\374e\3200\340\027\316?\363\347\330o\376Z\260?\022\374\356\201\303y\273\277U\371;&\240C\320?\303\327\351\333x\300\001\300\304\341\0021\375\241\367\277\252\022\213]`\"\325?}\345?n\206\257\341\277\020\223\33037\003\320\2778\235\023q|\370\246?\004\374\374M\345\313\013\300\352\260:\342\272v\005\300+ED\367\2508\354?[~\301jQ\013\323\277\022\374\356\201\303y\273\277\261\352\213\313!\221\333\277`\227F\370\241\233\302\277Z&\363]\371\226\373\277\202e!\2628\"\346?\022\260\r2\330.\337\277\256\002\335\355\327\036\326?\001\350\312\243\334\010\000@\006\270\355\\\241\323\321\277V\2027\253`\206\345?\261D\225x\001C\324\277\006\024\211rjs\337\277\324\347\344\374\026h\301?\203\020k\350\240=\361\277Y\323w4\351\357\367\277]$\270\275qY\332\277\032\373Qh\275\200\374\277\361o6n=Y\323\277[~\301jQ\013\323\277\002\017\337\306\300\365\347?\260a\220FaN\346\277o]\003t\t%\017\300\316\t\307\356\273\013\322\277\267V\214\202\202\310\316\277`==K\302\351\311\277\3564c/E\360\375?\254\270\201\260\200p\334?(T\257]\347\355\311?+\362\310\315\230\221\350?\234\032w\336~\030\272?n\2433Hpe\220\277=\256\232\316g\010\332\277\330+\365\277\350Y\347?\3568s\tCo\320?\320t\267O\333\362\013\300\254\270\201\260\200p\334?.eW\010\311\323\340\277\035\353\033k\023\000\211\277UE)\314\340\337\336?\326\205\376l\310\013\340?\257\342\255\026%\355\006\300\216P\244\335n\347\001\300>\243\\\332Gb\305\277\"\'Y\263\202g\001@\266o&\260P\325\361?X\235\367\3308T\366?ZHA\017\241o\341\277{Hi\007\037Z\344\277\003\272(\375(\021\363\2779\277\271\236\334\353{?,\335p\262f\020\302?,\237M\244\210\352\344?\035\r\362\251\334U\343\277\300\034\037>\346v\346\277\010\261_\331\321\310\334\277\006z\234t\327\336\331?\001\177U\2760\250\335?]$\270\275qY\332\277\244s\331\021\330b\355\277V\2027\253`\206\345?[~\301jQ\013\323\2774K\200\323~\251\343?Zyn\207\t>\377\277\245\246\212\246\377\352\301?\033\000\245K\005N\320\277\273\342\237J\003\233\266\277\242\320\026\310\n;\003@\332f\345\226\001S\323\277\024\273\002X\007i\332\277UE)\314\340\337\336?U\2372y\300\221\327?\252\277\0174P{\321?\200\022\246\210({\342?\326\330y\226\330\262\343?c\311P\023C\274\261\277\320pW*\264\345\332\277\313(\262\352\226\365\263?+\362\310\315\230\221\350?\330g\372\305_\322\331?V\352\320\277a\216\342\277-\245\000);\226\300\277T\331(\025\200\250\313?\004\222U\241\272[\334\277\335\313\357\277e\220\311?\260\361\031O\361\233\320\277\204++\026y\013\342\277\301\024H\006\"\365\346\277\356\260\"\230\371i\264\277U\204\2118^+\344\277\0265%\301\261\336\340\277\014\312\344f\"Y\314\277\311K`=\251\254\301?\005\325\350*\001\337\343\277[\034\255\000\027\340\326?\3713\306\025?\367\276?/\270\3221\331z\344\277\354Z\312\222\n\373\237\277.J\227\332\360\005\360\277\355\341\347\0055I\372?}\345?n\206\257\341\277\000\357\221\205_:\306?.eW\010\311\323\340\277\252\277\0174P{\321?\035\353\033k\023\000\211\277\001,\332\224 \001\332?\001\177U\2760\250\335?\000i\350s\240\247\340?UE)\314\340\337\336?\017\2250l\337\320\347\277\204++\026y\013\342\277\260\361\031O\361\233\320\277VJ|\257(\255\362?[A\263\213\321d\354\277b\007FG5\023\324?\215\007\261\210\274\201\214\277\002*\237\364\230\303\370?,L\322zxC\341?A\257I\227\264\213\360?\304\216\207\007\355\372\363\277\261\007\207\231\201\234\355\277\333DzM9\352\346\277`==K\302\351\311\277\260a\220FaN\346\277D\213\300E\205u\371\277\002\327#\313\210\034\365?]w3\347\201\000\336\277\356\036\366\344\264\357\360\277]$\270\275qY\332\277/9\360\001\235\031\005\300\340F\211\267\360K\325\277\217I\026Z\237\334\014\300\034g5\207\375\'\331\277\031\346\020:\001g\343\277m\021\026\316\310\210\000\300\326\330y\226\330\262\343?\017.\332`(\027\334\277\360\322D\266Jj\203?U\371;&\240C\320?\372W\241V\263\216\014\300\331\354\253@\341u\377?\t$\356\023\002\013\305\277\000i\350s\240\247\340?\005\325\350*\001\337\343\277\331\326>\366Pu\362\277\304}\340.\231\016\t\300A\257I\227\264\213\360?\001,\332\224 \001\332?\225\267;\226\237\343\337\277\261|m\014Z\254\335\277U\371;&\240C\320?X\325\262\324p-\351?@\270L\353L\364\343?\001\177U\2760\250\335?\224\312\323n\374\247\326?\006\013i\206\261z\325\277\004\202m\001\3617\340\277z:\337J\250,\311?\252\277\0174P{\321?\261D\225x\001C\324\277\202\355\007\010\233\345\304\277/\222hP\336\321\271\277s\347\332\311t\300\351\2779\277\271\236\334\353{?\252\277\0174P{\321?\326\330y\226\330\262\343?D\213\300E\205u\371\277\332\317\260r\201j\375\277\202\013\030\005Yp\355?1^\311\204\371\310\353\277\0228\214}\r\003\346?\257\016\025\035Q\247\342\277W_\2672:\236\322\277\005{\337}!-\353\277\230n\217!\225\270\374?T\331(\025\200\250\313?\\\321<\224a\262\326\277\010\261_\331\321\310\334\277V/\274\201P\337\341?\014\312\344f\"Y\314\277\200\022\246\210({\342?\005{\337}!-\353\2771\261D\256\tp\357\277\010\261_\331\321\310\334\277\001\265\325\031\341C\357?U\362\255\242\3208\333?[\337\314\373\202\010\313\277UL\267O\260\352\323?i\267\034\221&\034\320\277\363\347\330o\376Z\260?\3419v\211Zd\317\277\020\267\233\265\2479\324\277\374e\3200\340\027\316?\022\374\356\201\303y\273\277.eW\010\311\323\340\277\021\322D\366\t\240\347?\202\013\030\005Yp\355?\252\277\0174P{\321?UE)\314\340\337\336?\230\364\377\324\240$\001\300\254\020P\275\330\344\363?X\235\367\3308T\366?\227\331?\247\310V\000@\005\325\350*\001\337\343\277\030\305\321\014\r\345\372?\002\204\250\241xu\361?90\307\"\337\375\007\300n\2433Hpe\220\277\004\202m\001\3617\340\277\202\200\341\337\020\360\366?Q\021\365R\203\300\322\277\254\275\324\223\310=\360?\005\263\232yY\006\376\277\004\000t`\202@\332\277\t$\356\023\002\013\305\277x\023\370/\"\025\340?\027rV\343\374=\367?\n\372w\r\337(\345?\254\275\324\223\310=\360?UE)\314\340\337\336?\234\032w\336~\030\272?\360\304\3547\325=\370\277\254\365\217\217\000\027\343?X\325\262\324p-\351?\002\017\337\306\300\365\347?[A\263\213\321d\354\277\010\243\'\314\233+\021\300\200\022\246\210({\342?\267V\214\202\202\310\316\277\005\325\350*\001\337\343\277\001bZ\360\320\234\353?U\371;&\240C\320?\007^\344\257\301!\331\277\006\013i\206\261z\325\277\020\223\33037\003\320\277[A\263\213\321d\354\277\016\247\346\310\346\023\000\300\363\347\330o\376Z\260?\002\327#\313\210\034\365?X\325\262\324p-\351?\326\240\276\232\240\331\360?z\001_k;b\016\300A\002\305\300\3042\364?K\347\365\364<\031\327\277\005\203\266\265\345\256\352\277\t$\356\023\002\013\305\277\306q\251\321\255\177\330\277,g\222\250P\021\362?`==K\302\351\311\277\315\256z8\222\013\350?T\331(\025\200\250\313?ZHA\017\241o\341\277\002T\341u%\256\364\277\007^\344\257\301!\331\277\275\020\341c\302\305\340\277\301\274)\256\240\362\000@xI\340\225\377\237\271\277\221\316w\211\367\361\323\277X\235\367\3308T\366?\265\n\237\334A,\300\277(T\257]\347\355\311?|GZ\203k\003\327\277,\237M\244\210\352\344?X\235\367\3308T\366?\254\020P\275\330\344\363?\\\3111\327\0069\323?\354Z\312\222\n\373\237\277,\363\013\327\342\337\331\277\000i\350s\240\247\340?,g\222\250P\021\362?,g\222\250P\021\362?H\316\310\301\327A\020\300\022\374\356\201\303y\273\277\252\022\213]`\"\325?\327\321\353\022\t\250\356?\365\276\007\322\247\215\340\277\3713\306\025?\367\276?\266\266\032\332(W\330\2770\013N[\351!\350\277\302\376\375\376\\\255\371?c\311P\023C\274\261\277\022\374\356\201\303y\273\277\245L\201\371\0379\311?\205~\246?\211\262\345\277\333\227\365vI\221\352\2771^\311\204\371\310\353\277\255\233\206\342 e\352?\204++\026y\013\342\277\254\270\201\260\200p\334?\234\032w\336~\030\272?\335\277=\305\303\217\020\300$`\003\270\005\273\251\277\3054~Z\rI\373\277\227u\035\245d\303\361?C\010aX\001w\342\277\332\361\376#)C\343\277\273\223\325\310\3436\227\277\327\321\353\022\t\250\356?.\346t\330\214r\001\300\002\327#\313\210\034\365?_\301\216$\331\256\327\277\246\300?\206\323\301$?BU@\352\324\331\367?\013\311\241]\330\n\353\277\260\361\031O\361\233\320\277\327F\265\355\300\'\370?\356qq\016\305\226\364\277\334{\017\330G\005\337?\346\002jVo\016\323\277C\345\311\362d\'\362\277D8E\034u\316\365\277\333\352p\240Y8\356\277\360\223\371\357\255\217\327\277Zyn\207\t>\377\277\331\326>\366Pu\362\277\360\000\325\245+&\344?w\245\331pZ0\342?\035\353\033k\023\000\211\277N\262A\372\371\220\342?\001,\332\224 \001\332?\315d\345\312\371<\321?\002\327#\313\210\034\365?VJ|\257(\255\362?\376\205\343A\000\263\322?\"\374\244|2f\255?\002\274c\235\260N\344?\254\356\001\0141\014\356?\026I@~D:\337?\331\354\253@\341u\377?\326\205\376l\310\013\340?\320@k\027zr\306?\341\232\031\020_r\337?\020\236~2\204\230\274\277\336\365e\306\210r\351\277\245\020\252\315\224\217\301\277\344<\310\374[\024\277\277A\257I\227\264\213\360?\267V\214\202\202\310\316\277\261\227\020\242\021\352\327\277\001\177U\2760\250\335?Y\357m\336\025\023\243?\263=\007\36518\337\277+\325\352\004\370u\232?\202\270\234\333H\311\351?\302\253\202\325L\006\366?n\363[\307\336\264\337\277c\311P\023C\274\261\277,g\222\250P\021\362?\006\013i\206\261z\325\277c\3005\000\247\362\004\300\371\255J\336k3\324\277[\3567b\301\275\350\277\233\276\206\366(\253\344\277\367Co\254\252\313\000@`==K\302\351\311\277\374e\3200\340\027\316?\255\233\206\342 e\352?\273\342\237J\003\233\266\277m\345\256\307\234\316\364?\001bZ\360\320\234\353?pn\252L]\021\372\277\006\270\355\\\241\323\321\277~w\'Zi\363\334?]w3\347\201\000\336\277\014\320i\021\3515\335\277\303;\014\336\334S\360\2779\277\271\236\334\353{?\325k\236\340Z\034\327\277\301\274)\256\240\362\000@/\270\3221\331z\344\277\305\313\262~\2151\321\277\251e\006\207p\311\330?\010\243\'\314\233+\021\300UL\267O\260\352\323?\007^\344\257\301!\331\277\376\205\343A\000\263\322?\022\010\371\326P3\315\277\355\216l\334$\242\366?+\325\352\004\370u\232?1^\311\204\371\310\353\277\336\021Le\212\376\304\277\210r\215LL\255\267\277\021\313\260\307\217l\331\277.eW\010\311\323\340\277n\033/#Mj\366\2776\220\237\032\004\362\346\277$`\003\270\005\273\251\277\333\352p\240Y8\356\277\243^\265{<\331\332\277\036\332\303\301-j\301\277`==K\302\351\311\277DF\270\353u\224\323\277U\371;&\240C\320?@\307\037\\\270\230\311\277UE)\314\340\337\336?,\345\343y\356x\275\277,\272\r\322`\270\365?U\2372y\300\221\327?\022\374\356\201\303y\273\277\t$\356\023\002\013\305\277.\230\277 \271\337\357?\327~p\351\370\000\353?\030\002\340\353\214\213\361\277\364\262\003(\305\374\327\277\t$\356\023\002\013\305\277\304}\340.\231\016\t\300y\316F\236t\344\335\277\001bZ\360\320\234\353?\002\274c\235\260N\344?`==K\302\351\311\277c\3005\000\247\362\004\300\035\353\033k\023\000\211\277\024\352\003%\273M\361?A\257I\227\264\213\360?e\'\301b\202\235\260\277\254\270\201\260\200p\334?]w3\347\201\000\336\277j@\344\220Pg\341?\305\206\260\317(y\364\277Z\244\n\377U\336\271\277\327~p\351\370\000\353?\005(dT\021\206\347\277\261\007\207\231\201\234\355\277\326\240\276\232\240\331\360?D8E\034u\316\365\277T\331(\025\200\250\313?\205\321!i\231Y\351\277\0222\007\323F&\345\277\261D\225x\001C\324\277U\2372y\300\221\327?\251e\006\207p\311\330?\211\0252,kK\317\277X(.\376\200\324\354?\027rV\343\374=\367?\302Qy(mT\375?`==K\302\351\311\277\\\321<\224a\262\326\277\t$\356\023\002\013\305\277V/\274\201P\337\341?X\325\262\324p-\351?UE)\314\340\337\336?\"\002\356\345\375\317\313\277\006\270\355\\\241\323\321\277\326\205\376l\310\013\340?{\230O\232\347\r\310?\305\034\250\225\t<\302?\256r\201\2773\240\306\277\007\350\2723\237\303\327?\335\345vP:g{\277He\302#\215\001\324\277\261\227\020\242\021\352\327\277\374e\3200\340\027\316?\311\352\274\266\244\236\321\277\017\251sX\263\322\267\277_\rB\232\330*\351\277\202\013\030\005Yp\355?\374e\3200\340\027\316?\001\177U\2760\250\335?\366\341\273\317dm\327\277\314`\205\245\322/\000@\222K\323\324\021\275\264?\001\331^k\020Z\326?\202\270\234\333H\311\351?\005{\337}!-\353\277U\2372y\300\221\327?\265\n\237\334A,\300\277\254H\013\271\020\276\346?\351\255\320$\370\271\304\277\001\265\325\031\341C\357?\230\213mW\3243\330?\007\316Z\2471\324\356\277B\250\273\023\345\200\373?\331\354\253@\341u\377?\017\251sX\263\322\267\277\206\\X\216\341\331\377\277\267V\214\202\202\310\316\277\207\273\272\311\263\201\345?U\362\255\242\3208\333?\230\033\024\370\204\021\371?\245L\201\371\0379\311?\355J\2556\n8\353\277\360\027ha\345\344\373\277\001,\332\224 \001\332?\245\246\212\246\377\352\301?\005\325\350*\001\337\343\277\246\340\350L\354\360\335\277\202\200\341\337\020\360\366?\010\261_\331\321\310\334\277\252\022\213]`\"\325?Z\233\2748\261\026\345\277\2155\344\257\226\031\001@\254\020P\275\330\344\363?\224\333\362\301\272\310\261\277\003\321y\320\002\215\021\300)\307\206f\010\234\313?UL\267O\260\352\323?\331\326>\366Pu\362\277\260\361\031O\361\233\320\277\371\255J\336k3\324\277\3713\306\025?\367\276?\211\324?W\004\022\345\277\202\013\030\005Yp\355?w\310fvv\021\254\277vEK\031\264\241\350\277\327~p\351\370\000\353?+\325\352\004\370u\232?\027\326x\345`\321\005@\001bZ\360\320\234\353?\304k\r:q;\372\277\010\261_\331\321\310\334\277\006\270\355\\\241\323\321\277+\362\310\315\230\221\350?X\325\262\324p-\351?+\325\352\004\370u\232?\327\321\353\022\t\250\356?w\263i\330{\206\346\277\2703\216\344F\203\002\300(]\303\363J\225\321\2779\277\271\236\334\353{?m\345\256\307\234\316\364?\315\276u\276Ba\240\277V/\274\201P\337\341?Z\233\2748\261\026\345\277X\325\262\324p-\351?\326\240\276\232\240\331\360?C\345\311\362d\'\362\277\230n\217!\225\270\374?\251e\006\207p\311\330?~0\344_\322\324\345\277\354Z\312\222\n\373\237\2779\277\271\236\334\353{?\330\355\217\311*\361\020\300\270\312/\354\020\212\335\277\363\347\330o\376Z\260?\376\205\343A\000\263\322?\223\323\355\257\nx\347\277\314`\205\245\322/\000@\376\205\343A\000\263\322?\205\321!i\231Y\351\277\374e\3200\340\027\316?\006\013i\206\261z\325\277T\373\307\343\336\010\354\277\264\260\225/bz\307\277\217\370W\253\001\026\261?\003S\265YQ\307\340\277\363\347\330o\376Z\260?\255\233\206\342 e\352?,L\322zxC\341?\"\\\375=\210\252\355\277\217g\355\370\251@\344?/\354\223\305\036K\004\300\202\270\234\333H\311\351?U\371;&\240C\320?\240\237\241\245\370\351\273\277\332\361\376#)C\343\277X\325\262\324p-\351?T\331(\025\200\250\313?\267V\214\202\202\310\316\277]$\270\275qY\332\277\374\202\371\330+\362\332\277\303!\311\351\217\364\315\277\217\366\2320\2175\t\300]w3\347\201\000\336\277\001\177U\2760\250\335?\227u\035\245d\303\361?\005\263\232yY\006\376\277\261\352\213\313!\221\333\277\374e\3200\340\027\316?+\007\347\270\211\362\341\277$`\003\270\005\273\251\277\227\310\230\316tj\365?BU@\352\324\331\367?Z\233\2748\261\026\345\277\374\277\331\335\277\311\306?\001,\332\224 \001\332?\\\321<\224a\262\326\277\263=\007\36518\337\277U\371;&\240C\320?\254H\013\271\020\276\346?T32\302_Z\304?}\010\364kC\217\330\277\027rV\343\374=\367?\202-f\266\000I\363?\363\347\330o\376Z\260?\326\330y\226\330\262\343?\254\356\001\0141\014\356?\000i\350s\240\247\340?\027\037\333\271\354\226\363?\245\246\212\246\377\352\301?\000d\254}\316A\352\277\326\205\376l\310\013\340?\301X\007\254<_\362?\264\260\225/bz\307\277\255\266F\020\3712\373?\257\016\025\035Q\247\342\277\005\263\232yY\006\376\277\245\246\212\246\377\352\301?]$\270\275qY\332\277,g\222\250P\021\362?\327~p\351\370\000\353?,g\222\250P\021\362?\234\020\363\233\205\373\332\277\252\277\0174P{\321?\233\244\017}ET\376\277\337\344tM\266 \331?\252\022\213]`\"\325?,\237M\244\210\352\344?\230\253\235\000\025_\363\277\215\303\202c\310\267\330\277\267V\214\202\202\310\316\277U\371;&\240C\320?R\ng\317\263\265\335\277\252\377\362\204\003^\336\277\017\351\341\021D\315\245?\234\032w\336~\030\272?\027\315\213\254\260\326\343?\002*\237\364\230\303\370?\277\331\213\264\237\363\336\277V\2027\253`\206\345?\035\353\033k\023\000\211\277\254\275\324\223\310=\360?\226U\210|z;j?,\237M\244\210\352\344?.\230\277 \271\337\357?\326\205\376l\310\013\340?\245L\201\371\0379\311?\255\233\206\342 e\352?\264\260\225/bz\307\277\331r\034\364\354\341\003\300)\036]\334\"!\323\277\006\270\355\\\241\323\321\277\227\310\230\316tj\365?[~\301jQ\013\323\277#\363\227\037=\227\361\277`==K\302\351\311\277\334\225\235>\241\303\322\277$\375\314\221w\027\300?\221\245\331\226\035q\207\277V\2027\253`\206\345?\257\016\025\035Q\247\342\277\245\246\212\246\377\352\301?\205\205n\363\231\335\327\277\243zm@R\226\333?\263=\007\36518\337\277\257\016\025\035Q\247\342\277\207n&\252\354}\261\277\311\221\302\215xC\346\277T\331(\025\200\250\313?\\\321<\224a\262\326\277\200\022\246\210({\342?\035\353\033k\023\000\211\2779\335K\371\316V\004\3008\235\023q|\370\246?+\325\352\004\370u\232?\263=\007\36518\337\277\255c\313\346\350\213\367?\203&\33021>\376?U\371;&\240C\320?\202\200\341\337\020\360\366?\237\352\300\364\366\217\361?\254\365\217\217\000\027\343?\356\036\366\344\264\357\360\277\t$\356\023\002\013\305\277V\2027\253`\206\345?\254\270\201\260\200p\334?0\276)\002\264\210\272?\245\246\212\246\377\352\301?\023\266X\254]\353\342?\260\361\031O\361\233\320\277\273\342\237J\003\233\266\277m\345\256\307\234\316\364?PCH<\025M\313\277\267V\214\202\202\310\316\277\010:!.Q\353\324\277\004\202m\001\3617\340\277\265\n\237\334A,\300\277\357j\343\212\365\213\377\277\001bZ\360\320\234\353?\331\344\261\305Q;\320\277\000i\350s\240\247\340?\326\240\276\232\240\331\360?\'\034\344V\204}\247\277\234\032w\336~\030\272?\264\314\377\0036:\236\277\245L\201\371\0379\311?\006\270\355\\\241\323\321\277)\341N\375\242z\354\277T32\302_Z\304?\203\323\\\t!\227\372?\302Qy(mT\375?\355\216l\334$\242\366?-5\\W\337\024\320?\254\365\217\217\000\027\343?\376\205\343A\000\263\322?Z\361\233t\331Q\000\300\302\253\202\325L\006\366?U\362\255\242\3208\333?/\360\215-\021T\367\2779\331\353\323\247I\323\277O\310\256D\212\221\337?\242\320\026\310\n;\003@\3506\352\013\333\324\207\277\261\352\213\313!\221\333\277\254\270\201\260\200p\334?\320\213\372\277k#\325\2770D\351Vw\rr\277+\362\310\315\230\221\350?\000i\350s\240\247\340?.#\331\255\340\317\337?c\311P\023C\274\261\277Iy\3275u4\331\2770&\361\360\240_\342\277x\203`\304H|\020\300\254\365\217\217\000\027\343?\001,\332\224 \001\332?\245L\201\371\0379\311?+ED\367\2508\354?\203\342\022\342k\253\311\277\264\260\225/bz\307\277\251e\006\207p\311\330?\254\036\303\214\331\252\341\277\332o\005\203\272K\335\277Z\233\2748\261\026\345\277\202e!\2628\"\346?\332\361\376#)C\343\277\245\246\212\246\377\352\301?@_\206G\267\220\334\277m\021\026\316\310\210\000\300\007B\304\340~u\320?\202-f\266\000I\363?\254H\013\271\020\276\346?&\202\233\244\031K\334?\263=\007\36518\337\277`==K\302\351\311\277\205\321!i\231Y\351\277\027\253T\350~e\333\277\305\'N\224V\321\336\277\362\017\250\026\227\312\311\277\376\205\343A\000\263\322?\267V\214\202\202\310\316\277\374/~\257\033K\327\277\001\265\325\031\341C\357?\t$\356\023\002\013\305\277\027I:\323\231\021\346\277\302\376\375\376\\\255\371?\316\346\030\234\251T\324?\202e!\2628\"\346?\023}\253\304\222K\351\277\374e\3200\340\027\316?\t$\356\023\002\013\305\277\203\342\022\342k\253\311\277\304\341\0021\375\241\367\277\320t\267O\333\362\013\300\240\271<\231G\241\226\277\326\330y\226\330\262\343?\202\013\030\005Yp\355?,\272\r\322`\270\365?\370~\2226\314\302\324\277A\257I\227\264\213\360?yn\007n\260\372\322?\374\277\331\335\277\311\306?.\230\277 \271\337\357?\007^\344\257\301!\331\277\207\221r\235|n\340\277\245\246\212\246\377\352\301?,L\322zxC\341?\333|5Iq\303\371\277\357\366\"\211F:\332\277\230n\217!\225\270\374?\331\326>\366Pu\362\277\245\246\212\246\377\352\301?\202\221\210\270d\334\001@\263O\220I\333\245\350?W\256\236\261\214@\001@\261\227\020\242\021\352\327\277U\2372y\300\221\327?`==K\302\351\311\277B\250\273\023\345\200\373?\356A\215JQ?\341\277.eW\010\311\323\340\277\002;F\315\354\257\003@6\235\270\363D\002\306?m\345\256\307\234\316\364?`==K\302\351\311\277\235]\201\020\242\326\305?X-\201\341\310\241\360\277UL\267O\260\352\323?BU@\352\324\331\367?\376\205\343A\000\263\322?8\212\320\317\276\257\000\300J\001(\247\2769\265?\\\321<\224a\262\326\277U\362\255\242\3208\333?1\020\220\374e\260\307?\027rV\343\374=\367?\022\374\356\201\303y\273\277\267V\214\202\202\310\316\277\257\016\025\035Q\247\342\277\003}\032\036\251j\374?\014\312\344f\"Y\314\277|\256\260\216\"\275\342\277\200\022\246\210({\342?\330\3639\304\260\200\364?UL\267O\260\352\323?,\237M\244\210\352\344?\000:0\314\0007\341?G\202\353\313\330\333\260\277]$\270\275qY\332\277\004\202m\001\3617\340\277\260\361\031O\361\233\320\277\301X\007\254<_\362?\257\016\025\035Q\247\342\277\264\260\225/bz\307\277X\325\262\324p-\351?\327~p\351\370\000\353?\002\017\337\306\300\365\347?\033>\232\177\367\244\262?c\311P\023C\274\261\277\333DzM9\352\346\277\017M\335\033\007b\007\300\234\201D\222\022\r\312?UE)\314\340\337\336?\025\270\317 B<\271\277\306\205\204\263T\222\340\277\005\325\350*\001\337\343\277]w3\347\201\000\336\277\035_*\312\242\256\325?\257\016\025\035Q\247\342\277\2033\002N=\215\341\277\333DzM9\352\346\277\014\312\344f\"Y\314\277\326\240\276\232\240\331\360?\r\337\241\304\036\355\002@$\350\0174{\203\t\300\234\032w\336~\030\272?\363\347\330o\376Z\260?\232\376\030*%\006\367\277\260\264\013pq\365\351\277,\237M\244\210\352\344?\370%\222b\365>\300\277\266\246\2303\322\317\236\277U\2372y\300\221\327?UL\267O\260\352\323?\252\022\213]`\"\325?\234\271\323Wz\n\332?Z\233\2748\261\026\345\277\001bZ\360\320\234\353?\261\227\020\242\021\352\327\277\326\205\376l\310\013\340?\324\347\344\374\026h\301?\022\374\356\201\303y\273\277.\227vl\304h\345?\027\037\333\271\354\226\363?_\rB\232\330*\351\277\002\204\250\241xu\361?\261D\225x\001C\324\277\245L\201\371\0379\311?\372\004&-\243\347\010\300\264\027\276`-e\310?\024m\367\251_\037\301\277\302\253\202\325L\006\366?\252\277\0174P{\321?0\226\204\2001\242\376\2778\235\023q|\370\246?.J\227\332\360\005\360\277\317!<&\313K\010\300UE)\314\340\337\336?V/\274\201P\337\341?j\n\230\2726\303\323\2771\261D\256\tp\357\277\205\321!i\231Y\351\277$`\003\270\005\273\251\277\245L\201\371\0379\311?s\266\312\351,\202\322\277\200\022\246\210({\342?\261\352\213\313!\221\333\277^R\252\006r\347\363\277\006\226\202\023\331j\345\277\254\356\001\0141\014\356?\374\277\331\335\277\311\306?\007^\344\257\301!\331\27770GY\256\255\246?V\\\204\373tq\261\277\261D\225x\001C\324\277\031\236\275\351(\370\002\300\200\022\246\210({\342?\324\347\344\374\026h\301?/5\0232\313\240\370\277\255c\313\346\350\213\367?U\2372y\300\221\327?\227u\035\245d\303\361?\332\272oD\305P\344\277\202-f\266\000I\363?\254H\013\271\020\276\346?\333\352p\240Y8\356\277\005\"\261\317^\332\313?\326\330y\226\330\262\343?\252\022\213]`\"\325?T32\302_Z\304?\332\361\376#)C\343\277z\256\343A+\273\n\300\203\323\\\t!\227\372?t|,\340\320c\211\277\254H\013\271\020\276\346?\327\321\353\022\t\250\356?\301X\007\254<_\362?\265\n\237\334A,\300\277\362H\264%\322\037N?\245\246\212\246\377\352\301?\326\240\276\232\240\331\360?UL\267O\260\352\323?%5\237z%X\340?+\325\352\004\370u\232?pn\252L]\021\372\2771\261D\256\tp\357\277\035\353\033k\023\000\211\277,\237M\244\210\352\344?\273\342\237J\003\233\266\277YC\356+Y\242\375?+\325\352\004\370u\232?-\r\211\373p_\371?\261\227\020\242\021\352\327\277UL\267O\260\352\323?\004\202m\001\3617\340\277k\2223\236\214\'\361?Z\233\2748\261\026\345\2777\3774h\254\034\272\277\006\013i\206\261z\325\277V/\274\201P\337\341?\327\321\353\022\t\250\356?\001\177U\2760\250\335?]w3\347\201\000\336\277.J\227\332\360\005\360\277\004\202m\001\3617\340\277\006\270\355\\\241\323\321\277\331)\272\037a\034\366\277\356qq\016\305\226\364\277\350\240U\3544\343\326?\202\270\234\333H\311\351?\024\217\330dd\033\255?\273\342\237J\003\233\266\277x\355,\3012\237\002@7y\365q\324\313\301?\016\372a\362\366\272\003\3009\277\271\236\334\353{?\013\0001=<\375\351\277\326\205\376l\310\013\340?\324&\263\036l\313\307\277i\267\034\221&\034\320\277\304\341\0021\375\241\367\277\234H\221\377\234D\347\277T\331(\025\200\250\313?\374e\3200\340\027\316?+ED\367\2508\354?\254\356\001\0141\014\356?9\277\271\236\334\353{?V/\274\201P\337\341?UL\267O\260\352\323?\302Qy(mT\375?\342\373\267\275FQ\002@\220\325\013\270q%\342?.eW\010\311\323\340\277.eW\010\311\323\340\2778\235\023q|\370\246?\362\017\250\026\227\312\311\277\005\325\350*\001\337\343\277+\325\352\004\370u\232?~0\344_\322\324\345\277\202\013\030\005Yp\355?\006\270\355\\\241\323\321\277\252\277\0174P{\321?x\010\355\356\nm\003\300\373o\371\365\241>\334?\245L\201\371\0379\311?\222vI\3018\252\345?\204++\026y\013\342\277\254\020P\275\330\344\363?\252\022\213]`\"\325?\327\2310\027\321\316\373?*\303\215\320\243\214\364\277\213b\300\240\207&\332?\030\030M6\035\214\376?\363\347\330o\376Z\260?0\014)Z\006\201\301?\3713\306\025?\367\276?9\322\246u\354\262\365?\252\277\0174P{\321?\254\365\217\217\000\027\343?\252\277\0174P{\321?\014\312\344f\"Y\314\277\252\022\213]`\"\325?,\272\r\322`\270\365?\245L\201\371\0379\311?y\270\253y\370\024\306?\030\002\340\353\214\213\361\277+\325\352\004\370u\232?-F\207\000\363\206\335\277\261D\225x\001C\324\277`==K\302\351\311\277\020{\320\337q\341\316\277V\2027\253`\206\345?m8*\361\254u\370?X-\201\341\310\241\360\277\251e\006\207p\311\330?\tS\246\273\241{\304\277\376\205\343A\000\263\322?\376\205\343A\000\263\322?\202\013\030\005Yp\355?Q\220\037\177\"\224\317?,L\322zxC\341?\202-f\266\000I\363?J\212\321ZYG\016\300ef,S\307@\014\300\333DzM9\352\346\277\203\020k\350\240=\361\277\241\211\006\201|\032\324\277\261\227\020\242\021\352\327\277\027\203\375\273P*\002@\204\377\303\017MQ\006\300\022\374\356\201\303y\273\277\251e\006\207p\311\330?\254\270\201\260\200p\334?UL\267O\260\352\323?\0141\007\355B\033\344?{\305&\262\273\353\323\277\202e!\2628\"\346?C\374\\\256\036\346\331\277\203\020k\350\240=\361\277\255\266F\020\3712\373?\326\330y\226\330\262\343?\311\344=\267\210\352\351\277\004\251\201$\325$\010\300m8*\361\254u\370?(;X\252\202,\345\277n\213\245\032\275\034\374?`\227F\370\241\233\302\277\230\253\235\000\025_\363\277X(.\376\200\324\354?\327\321\353\022\t\250\356?\254H\013\271\020\276\346?O\014\035\315\355s\260?\277\331\213\264\237\363\336\277\316{E\323\252\375\000\300\274\005\362\350=\264\336?\261\227\020\242\021\352\327\277\t$\356\023\002\013\305\277\370\034~\314\221\227\330?\230n\217!\225\270\374?,\237M\244\210\352\344?\302\376\375\376\\\255\371?\315D-7\021\230\255?\0265%\301\261\336\340\277\273\342\237J\003\233\266\277\263=\007\36518\337\277B\250\273\023\345\200\373?\001\177U\2760\250\335?\027rV\343\374=\367?\222s+\323\315\361\351?\355;\361\262\024\373\362?\006\270\355\\\241\323\321\277\265\n\237\334A,\300\277\327\321\353\022\t\250\356?c\311P\023C\274\261\277U\362\255\242\3208\333?\245\246\212\246\377\352\301?9\277\271\236\334\353{?\245L\201\371\0379\311?\202-f\266\000I\363?\001\265\325\031\341C\357?\t$\356\023\002\013\305\277[\3567b\301\275\350\277\200\014!\336a\236\341\277\363\347\330o\376Z\260?\304\216\207\007\355\372\363\277|\355\026\246J1\341\277\035\353\033k\023\000\211\277\014\312\344f\"Y\314\277\254\356\001\0141\014\356?\330+\365\277\350Y\347?\354Z\312\222\n\373\237\277\234\032w\336~\030\272?U\362\255\242\3208\333?\302Qy(mT\375?\327\321\353\022\t\250\356?\202-f\266\000I\363?\363\347\330o\376Z\260?\335\350\030h\261j\326\277\035\353\033k\023\000\211\277`\351~\030h\364\344\277\005(dT\021\206\347\277.\235\022\004\001\255\363\277\355\357Z\3255\017\350\277\254\365\217\217\000\027\343?V\2027\253`\206\345?\033\221C\203\363\032\341?0\226\204\2001\242\376\277\213Jo~\321\230\337\277\345\017\352gO\024\016\300X(.\376\200\324\354?\001\242\003\021C_\333\277\227\310\230\316tj\365?\234\032w\336~\030\272?UL\267O\260\352\323?\006\270\355\\\241\323\321\277\006\013i\206\261z\325\277"
      }
    }
  }
}
node {
  name: "tensors/component_1"
  op: "Const"
  device: "/device:CPU:0"
  attr {
    key: "_output_shapes"
    value {
      list {
        shape {
          dim {
            size: 2262
          }
        }
      }
    }
  }
  attr {
    key: "dtype"
    value {
      type: DT_DOUBLE
    }
  }
  attr {
    key: "value"
    value {
      tensor {
        dtype: DT_DOUBLE
        tensor_shape {
          dim {
            size: 2262
          }
        }
        tensor_content: "\207\375i\032Q`\324?v\035\354\315k;\346\277\214\321\243z\032v\320?oU\2620\021^\260\277L\354;\271\225\267\367\277\237\221)_\247\274\314\277\013\227\003\t\031\335\356?\376\217\375\205w\267\333?\200:\325\240(V\333\277m\262\036nO\007\355?\207\265\005\357(c\373\277j b\035\277\350\260?\342~\236\301\353\321\254\277\247I\000\016\036\301\373\277\334\324\330\233om\340?\206\203\035Ydq\326\277p\324\243\0250 \353\277\274\300\021ZV\004\367?\203\231\000\251\177f\330\277\243ec\277p\322\310\277Z\350\034\267\315\355\342\2777\'\203\243\224\001\002\300\332\235\004\230\243\222\230?\214\321\n5\322_\356?\n\"\365\260\246\327\357?\304;B\250V\021\327?&\212\207\233\016`\306\277\346\220\253\273\243(\242?6=\302uaf\374?\270\244\014\024\255\007\344\277\377G2\240\227\320\364?\'\224\003n\0033\304?\031K\031!q,\343\277f7\356\037O\372\374\277\307\335\372,\023\037\374\277\005NT\226%\330\325?\206\203\035Ydq\326\2772\351T8\274[\351?\017\222\257/\222\377\364?\014O8#9\366\367\277r\206X\316\030\035\351?\233\307k\321\322y\316?\024?w\311\253\010\347?\237\233\2451\234\217\312?f\3016\025h\330\263?\261\256M\014\003\331\351?cb\013\r\021\310\266?\215Ati\022\222\320\277\314\n\217\351P3\367?\3213dq\377\247\211?(\377\225\363\200e\305\277\032\210\277\201\347#\342?\003_\371|\306\343\330\277\262f\202&#\362\362\277\214\321\n5\322_\356?Dq\013k\225\252\327\277Z\301\252\360\035\341\370\277\355w\027B\226\204\355?\212WW\271-\207\322\277\270\010\214\365\212\365\372\277\025\333\367\347\315\032\360?\246O\200oU\335\306\277W\376\377\006\351\342\344\277\374h\323\272d\313\340?u\014\366\234\037:\360?\255v\224\312[\325\366?z\366\312Qg$\337?\222\266\323\0130\215\362?_\325Jby|\001\300\017\256c+\220\006\365\277u\014\366\234\037:\360?)\371\025\222II\372\277\277b\312\336\022\022\334\277\337q>\370l\250\224?Z%\303\027D\345\341?z9\361\023\0258\371?\373+-Z\356\323\341\277\224\240Wv\314\201\376\277\325\026\202\213\301L\346?\275@\336|z\017\340?j\201x\320GH\264\277\026\354\355\030\032\034\346\277T\237\324\376\221\322\347\277\352\320 T_\215\371\277\224\004p\235\362\205\347?\323d\315\322\330O\350\277\261J\316*%\353\362?\344h\273q\320\334\252\277OKg\301\354\307\364\277G`f\204\364\236\324?\r\201 \271\375\347\354?\242u\306\255T\253\377\277\024f\351\217[\025\361?\320\205n\355\245J\364\277\366\037\213\002)\260\345?A\266^\233\366#\000\300\335\014A\223k{\340\277\222\322\207\007.\224\362\277|\333\251\230\321E\336\277\315\033\205\032\2354\355\277\t\255\177\236|\350\322?Q\300u\031_\315\363\277\203\231\000\251\177f\330\277\271\036\300\217Q\340\337?\320\005\242\312\201?\353\277\326\213\220\3433R\345?\255\r\327\177\003\376\300\277\023\r\2173\347\026\362\277\201\367G$\303X\363?,\240\014\200\200@\356?3^c\220.a\350?\273\216)\304\221\022\342\277dMj\265\262\005\361?L\251\025\367\347\243\355?.\302\221\'aY\354\277\335\345\316\314\273n\366\277\2609?\264\220\323\352?`x\356\\,\275\270?\353\002\t\352#\177\356?F\243\363\000Z\234\374\277\344\246\216\013\277\035\244?@\242\017tF~\332?\275}\353\227\250\360\334?\310R\t\205\205$\373\277^ \326\370t\361\365\2774\323q\350\240f\347?\267a\212\317M\204\001\300\250\276\016f\220\306\372\277h\005W\3245\376\372?|k\331\251\331)\336?x\317\240\206T8\344?[/\246\244\360\241\275?o\234;\0364\022\353?\344\246\216\013\277\035\244?jS\363e\370\366\357?K4\007\237u\236\356?X;\246g_\332\343?\256\007W\036\314\341\365\277\013\227\234Na\363\320?\\\232\321o\266\352\340?s\373f&\213\"\350?8j\005\350\363\204\344\277\226\356\214M\327\220\345?\240\213BC\270\266\363?c\303!\300\231\'\272\277\355/L\\\266\235\366\277\226\356\214M\327\220\345?acM\005\316\372\362?y\340\226\267\2409\372\277\344ExX6\276\220?\347\346\003\244z\202\373\277\334T\014yKb\367?\374h\323\272d\313\340?L\354;\271\225\267\367\277\223+\342c\242\222\361?\254\332\023\2549\303\355?\342\235T1\207}\362?\3730\322} \247\336?\267\223}\235\030\360\373\277i\253S\305L\343\261?\240\0068\267\031\302\313\277\374\004\273\223>\307\367\277\221A\305\263\275\207\363?\256\007W\036\314\341\365\277\213\\\225\"\250p\321?J\277\370F\003\231\357?\215F\031\215De\355?\201\264!b\025E\331?\330j\223F\265\347\000\300\373+\224\024\246\275\337\277\036\203\322b\0300\366\277C\374\374\022#\245\330\277\272\326\364\251q\371\370?F\353W,\202\231\325?\007_J\307q\331\373?9\337\023@f\212\343\277;\3110\360J\225\341\277\203)0\272\207J\330?#5\330e\254\"\307?\021\340K\301T\370\351?6\275\216\230\205q\345?i\226\031(\246\n\372\277AZD\216f\227\363?\3213dq\377\247\211?\232M\270U.\241\342?\214m\213S\364q\367?\032\215d\245\031\367\316?\177)\337o\334T\365\277\233\372.\245\234\264\341\277\2347\325\005\023\254\340?\212WW\271-\207\322\277<\006\327P\301\214\340?~\264\320\027jO\366\277\251\256\253w\254\355\303\277\274\300\021ZV\004\367?\234\247\014\257\302\261\316\277r\206X\316\030\035\351?S\216\336\315E\321\361?\367\376\215e\252E\001\300<\206\n.\235\201\367?5H\200@\023l\346?\016y\273\344\257\206\002\300\255\022|\2435\321\355\277\205\016\017\001\362k\327\277\214\321\243z\032v\320?\332\333\3271\222\323\201?t\263\233@\253;\361\277\343.\027\205\367\211\361\277\010\360\014\033\342\345\372\277\370\211\333\217\351\257\372?|k\331\251\331)\336?\220\350jWI\211\364\277\355/L\\\266\235\366\277\347\346\003\244z\202\373\277\277\306\342\0059\026\365\277\246\270=\272\255\264\374?\\\244\264\374b\247\274?\222R\273\344\t\211\351\277\376\217\375\205w\267\333?\316X+{\023,\354?\201\023\374\037\301_\363\277\323d\315\322\330O\350\277\237\0264\353E\261\364?H\325t\334f\244\323?\304\232\034f\002,\361\277*\351\262\243ep\303\277\361\216wd\r\256\363\277P\010A\377>\264\352?\256\353\242\"\316\332\365?\326\'x\274\rN\374\277\031\023\261)u\036\343?\335\3507\373\020\375\251?Q\031\320u\323\313\362?g\220H|\303\370\373?\274\003\237\326\273\001\337\277++\376\'\016;\357?5H\200@\023l\346?\257`\261z@\340\364?\306%_X;\034\325?\361KQ\242_\232\351?0\233\270\246\371b\364?\206\210[\302\336Z\325?\232\205 M*\257\342\277E\346\031\303\007\260\326\277\351\235\013\205\"R\232\277\"\266M;EJ\312\277|\333\251\230\321E\336\277\032\215d\245\031\367\316?\240rN\370\325=\001\300\244\352\324\005\307\260\376\277\001u\334\314\341\330\332\277\323\310L\264\266=\377\277\205\023MjlU\326?\372s\370?\316\272\370?\203\341d\324\247c\361?L\251\025\367\347\243\355?\230\330\251\375\273\233\343?-\025\033\330\362E\355?\346\220\253\273\243(\242?k\310\001\276j\374\356?F\207?\005\\\225\374?\223+\342c\242\222\361?\n\276u\317\310\351\370?h\227[ c=\266\277\365\342\344\241\262\270\346\2770\267l\242\367i\364\277\316X+{\023,\354?\030\236\242\321\002\031\344?X\327\215@9\326\372\277\303~hj\004%\361?\302Q%\370q\006\331?\300\334\026\240\377\000\332?\220(\321h\333\016\001\300\303\3063P\344\013\330?07\240\177\323^\353\277?-\001\034\324x\333?\353&\022\202~\375\244\277\267\223}\235\030\360\373\277\307\007\227\344I\376s?\0012OP|\333\362?\371~\266\n\200\300\342?@\242\017tF~\332?^`<\n\007w\002\300\362\003\206\274\177\263\362\277\000\331\364\363\007\335\363\277\2332\376VP\254\317\277vZ\222.\3422\345?XE\211\364\013\227\277?\221\235\337\300M\024\000\300z\271\27569C\342?\367\224\231Z\233\265\344?\306%_X;\034\325?|k\331\251\331)\336?\211*\024G\233h\372\277\212\\\374\334_Z\357?\n\035P\215t\004\323\277\253-6\242\023\306\300?}\333B\336\031\\\340\2774\013\332\337\234t\347\277\013\227\234Na\363\320?\205\023MjlU\326?\271\341\262t#\377\342?\262f\202&#\362\362\277\257|ev>\347\364\277?-\001\034\324x\333?\200:\325\240(V\333\277a\331\004\020\265\034\274\277>p\'\336\201\214\365?:\270\241y\266}\371\277\004\331E>\263\322\326?\2347\325\005\023\254\340?\374\240\242l\030\303\336\277\002\352\352$T\336\331\277H\346\016\213\0016\001\300@\235\321\n\314\224\333\277\033\002s\375\213\374\315?Q\031\320u\323\313\362?\021|\314\337v\n\363?\030\236\242\321\002\031\344?\307\225/G38\325\277^\004\"\375v\352\365?\323,e\333\334A\350?m\340\243\330\236X\261\277\01033\335\217\371\324\277\371\032\236\343Y\274\371\277F\353W,\202\231\325?{\312\263g\205D\370\277\031\257\230\002O\032\372\277\n\035P\215t\004\323\277\035\342\023\333{4\316\277\370\t\250\262\r\273\343?\361\016\253A\351\242\352\277\215~\201\204@s\355\277VQ\211\267z\317\345?;\316\325\023}h\336?\016\271\210\260\371\365\354\277.\212)0eK\354?(\204\007:\327C\373\277\326*\341\352b\334\257?CD\310\370\002\214\377\277\230\315\217\260X&\001\300)~ \036\350=\302?\230\233\003\235E\244\344\277\320i\272\361\247C\364?\226&\365D\323\236\345\277,\240\014\200\200@\356?\363\370\307\361\315\255\350\277|?\302\277\367I\367\277m\262\036nO\007\355?:Y\307\273\nc\337?\323\310\345\371\376S\361?\3213dq\377\247\211?\"\300\311\r:\035\310?\202$\362P\ra\331\277\r\201 \271\375\347\354?\314n\016\313.!\356?\020#r\203\002\014\364\277a\331\004\020\265\034\274\277;\316\325\023}h\336?\332\235\004\230\243\222\230?p8\274<V$\364?\301L\347\216\367\034\332\277\375\032\357-\005\262\334?\213\224d\324[h\357\277\344\207q\341k\210\360?|f4\206\247V\341\277\356qE\345\353g\226\277)~ \036\350=\302?\002\352\352$T\336\331\277\311\307\027\335\367)\372\277YL\234\230\253\333\371\277\337\224\201\021\007\307\256\277\\6\271H\220\346\367\277\247\304\216\307\307\342\305\277\2372\350\346C\270\364\277\221\032S\355\r{\351?\275@\336|z\017\340?\324\241s3OG\347?]z\331\007^\014\277\277B\353\006\342\326\243\362\277\2509\235\037:\350\304\277P\010A\377>\264\352?\361KQ\242_\232\351?\200:\325\240(V\333\277\371A\020\252\t\311\343\277\223\217aE\200\200\350?:\234\355}\270v\371?\221\235\337\300M\024\000\300\202lV|5^\362?w\366y\007\274.\374\277]\217\023\245\004\345\366?\036W\"3\3569\315\277\021\340K\301T\370\351?T\037\241!\266\335\360\277\261\256M\014\003\331\351?Uxb8\342\305\375\277\003\034\323\272\030\320\376\277\016\366.\021p\355\353?\363\\\340\030\364\261\361?!\306Ioq9\363?\271\036\300\217Q\340\337?\371~\266\n\200\300\342?$%uw\310I\360?\307\225/G38\325\277\326\213\220\3433R\345?H\3206s\354\272\324\277\203\341\313\216_M\377\277\326*\341\352b\334\257?9C\223!Dx\372\277[/\246\244\360\241\275?>\270\362\303as\334?\265E\341\013V\367\346\277\r\201 \271\375\347\354?%\025yC\234Z\307\277\\\3229g\262\370\340\277_\003\340\004\272\267\271?m\365D0\375\032\367\277\367\224\231Z\233\265\344?njS\210o \366\277\367\333\345\013\220R\205\277\375\032\357-\005\262\334?\023\312hq9\003\350?\313\371\230\270\0042\321?\203\341d\324\247c\361?H\215\020\261>\247\372\277\263[\304[q\354\350\277\365\252|\252\266\252\346?\266\202\207l\314\356\345?\307\007\227\344I\376s?\342\235T1\207}\362?2\241\211R\334t\362\277\212\347\206\3125k\322?WF\313\354\310\311\373?H\325t\334f\244\323?\262#\\du\336\350?1\020\307\376kh\363?\221\335\254\214\227\203\352\277\016\035\241\327\037\372\365?\251\256\253w\254\355\303\277CDa>K\242\361?\336>))0m\365?\000\005\014\336\351\274\332?{.\314\216\253H\341?\246Y\374AJ\260\304?\364\321\356pf\267\360?\2347\325\005\023\254\340?\342\271\010-\205\204\362\277bN\023h\'\"\273\277\314ii\247\374M\321\277\344ExX6\276\220?\313\2614\215\3344\370\277\314n\247\020w7\320?\352\215\372\221\261y\357?K/b{C\313\321\277}\333B\336\031\\\340\2773\026\230\252Nz\361\277\320\005\242\312\201?\353\277!\306Ioq9\363?\273K\003\002\344\376\367?\240\020\264\211\016\225\311?#5\330e\254\"\307?\030\036\326\256\336\r\373?CDa>K\242\361?\351\264lXa\206\371?\261J\316*%\353\362?}\230\034\034lH\366?\260\325\277\322\262\345\363?\366W\363\371$\276\345\277\"W\014\303\341E\362\277o\234;\0364\022\353?\005I\026-\253\356\326\277|f4\206\247V\341\277e\336,\t#\022\360\277\031\030VM\247\361\317??\34556\364\221\364?\215\342\231\253fw\366?\177)\337o\334T\365\277\217\263\302\020i\t\002\300N\036$OZ\251\354?\202lV|5^\362?\337\224\201\021\007\307\256\277\314\246v\302*/\356\277R\216E\210\375\272\377\277\300\327\3306\205\027\333\277i\253S\305L\343\261?\2644\353\332\t\366\360?c\364\017Y>\007\362\277\267/\376\273:\002\345\277*n$\352\273N\371\277H\325t\334f\244\323?\216s\\\377\326\203\365\277\224\274\244\267\022\237\360\277\276\355\273\206\240\014\335\277\021|\314\337v\n\363?\024\002\321h5\021\350\277\227c\233\245I\226\344?\353\002\t\352#\177\356?O\2232\247\314\256\353?9\337\023@f\212\343\277=\263\264Z\347\211\335\277\307\232m\260\255!\324?1\020\307\376kh\363?\374\240\242l\030\303\336\277\210\016`K\235a\372?X;\246g_\332\343?\3730\322} \247\336?K\367`>\377\246\357\277>(\303\262Y\217\334\277\3645nRD\245\347?C\001;|\235\216\327?IEE\313^\300\323\277Y\260\264\277\321\337\342?eL(\275\365\322\264?\332\352\273\353\212b\342?\374\240\242l\030\303\336\277\261J\316*%\353\362?\231B\236\010\313+\000\300\355\020/2c\010\243\277\022\361\3327\351\017\362?s\373f&\213\"\350?\260\361s\316\260\354\363\277\016\366.\021p\355\353?\020\007\276\207\004\005\364?V\355p\220T\313\374\277\314ii\247\374M\321\277\235H\3136_\255\366\277\311\017|\010 \'\323?72\235\360\367v\344?\315\343\034#\241&\355?V\211\361\256v\335\345\277\262\277C=O\332\377\277\360\326BJ\355\224\352?kd\202\334\214\016\370?\254\332\023\2549\303\355?\266\202\207l\314\356\345?\233\307k\321\322y\316?z\366\312Qg$\337?,\323\317SJ{\301\277z\271\27569C\342?VQ\211\267z\317\345?\001\010\263\230E\374z\277\332\"$\343\206p\342\277S\216\336\315E\321\361?C\374\374\022#\245\330\277\374\240;\262`\331\340\277o\234;\0364\022\353?s\373f&\213\"\350?<\006\327P\301\214\340?\210rxr\303e\323?\331u\255\223\030]\343?\377G2\240\227\320\364?r\"\331\354:/\362?\206\203\035Ydq\326\277\233\372.\245\234\264\341\277\333\2272;\371u\341\2772\205\325V\336m\362?\202lV|5^\362?\026\354\355\030\032\034\346\277\301\224K\272\037\032\363?\274\010\335?6\353\335?r\206X\316\030\035\351?\270l\244\034\261\371\343?L\244p\323\265\320\320\277Wb\177\350\306\320\373\277]\253\307\240\002\354\366\277N\272\244m|\273\365?-\315O\362\022_\366\277\036\354\217\255p\007\314?!\342\375jo@\363\277\317\020`\2253E\365\277q\021Jv\246\027\352?\3563rK\375&\215\277\033\375\315\331Y)\341?\214\321\n5\322_\356?\033\300\'y\3431\342\277\343\022c\211\371\202\361?\275\334\305UT\013\367\277\372\273\303%\256\241\337?\373\363\304b\362\305\341?\303~hj\004%\361?\r\250\222\177\255\364\366?+^\301\373\327u\302\277\377\377\315to\323\333\277\365\252|\252\266\252\346?\025\264\205!\036\016\346?\201\264!b\025E\331?@\001\3521\362\230\364\277\305\253\022\227N-\327\277\201\367G$\303X\363?\000\005\014\336\351\274\332?++\376\'\016;\357?\2765 \262\310\t\366?m\340\243\330\236X\261\277R\362]\257#\277\350?\266\272\357c\310\374\345\277\364m\326I@\263\347\277n\352\206eK\025\355\277Z\350\034\267\315\355\342\277\013\227\003\t\031\335\356?\255O\"\004\254\310\354?=\373\030\206\017\207\366?\207\370+\261\326v\325\277P@\251\366:\302\352\277\030\236\242\321\002\031\344?\376\212\277\034\375\315\334\277\253-6\242\023\306\300?>\270\362\303as\334?K4\007\237u\236\356?S\252\222\311C\330\361\277\275x\255..\007\336\277\324\241s3OG\347?\262\277\334\202\227\360\361?R\265\267N\255\307\351\277\002N\003Lz\342\362\277\345\3402\370\227p\375?&\212\207\233\016`\306\277\314n\016\313.!\356?\370\t\250\262\r\273\343?\370\t\250\262\r\273\343?\0108qF\n\343\323?L4\240\344\275\264\320?\032\215d\245\031\367\316?(\t\022\306u8\303?]\031\303T\325\254\273?Ys\016_[\350\343\277++\376\'\016;\357?\355w\027B\226\204\355?4\213\246\002\301\177\360\277\315\336w\377nS\320\277S\216\336\315E\321\361?\200\236\355\307NZ\364\277P\244\301\035a\306\363?\030:\212\252\334\024\373\277\025\264\205!\036\016\346?\0108qF\n\343\323?\0108qF\n\343\323?\031\030VM\247\361\317?<>?H\275\232\340\277AZD\216f\227\363?\t\255\177\236|\350\322?\332\"$\343\206p\342\277o_\225\275\275\032\354\277\313\371\377r\274\033\357?E.\345\250\347\226\375\277\227c\233\245I\226\344?\226\212t&\261\214\374\277\261\346\265\003\377\346\351\277\366\211\177\r8@\002\300a\177\001\001\314\001\363\277*\363.vZC\301?\302Q%\370q\006\331?\362E\177E\265}\222\277\333\2272;\371u\341\277\3645nRD\245\347?\351z\310k\2103\240?\360Y\317\035-.\001\300\";X\307\343>\362?\233\302\306\255\240\246\341?\322\267V\203j<\351?y|\027\326\302K\343\277ize,\250\003\372?n\'-\306\301\014\354?\305\363v\302v*\360?\035\342\023\333{4\316\277\031\223\344\006Q\023\372?f\"M\310\3607\267\277\020\007\276\207\004\005\364?\321BH+\3706\352?3\372Ji\010]\377\277\213\\\225\"\250p\321?h\357\027\002i\231\000\300\337q>\370l\250\224?`x\356\\,\275\270?\177\312\004\2620:\333?|\243\332\346\035N\340?\274g\267\375\341\005\370\277J\277\370F\003\231\357?\317\220\223r\017:\354\277\214\321\n5\322_\356?C\374\374\022#\245\330\277\tIgwV\344\371?\242\205\302\341\200\232\310?\221\032S\355\r{\351?\305\253\022\227N-\327\277\262#\\du\336\350?>\214\333\331\177\223\365\277\206\203\035Ydq\326\277<C\344k\357m\335?\3046\004?\334\'\330\277\253-6\242\023\306\300?q\021Jv\246\027\352?D\271o\226\275\247\360?\177\312\004\2620:\333?\270\010\214\365\212\365\372\277\325\026\202\213\301L\346?-H\336\253\274\200\300\277a\331\004\020\265\034\274\277\257\3040\\\036\316\353?\333_\312C\375g\341?cM\321oj\357\376\277\225\261\346\354`\231\346\277n\'-\306\301\014\354?\251C\031\362.\273\302?\t\250A5\002\377\323\277\336>))0m\365?A\022\340b>\232\332\277\177\312\004\2620:\333?\"\300\311\r:\035\310?VQ\211\267z\317\345?\206\210[\302\336Z\325?3^c\220.a\350?(R\024l\014\330\000\300S\003T\340o\300\376\277\206\210[\302\336Z\325?\205\016\017\001\362k\327\277\243u_\363\234\301\361?\327\000\237;\246W\344?\037a\236\005\343\014\313?\303\3063P\344\013\330? \326\254]U\022\312?\n\"\365\260\246\327\357?\020k=i\342\362\352??-\001\034\324x\333?\002\357(\216\316\307\330?\0169U\323\035\001\366\277;\221\310\370N\207\341?w\222\372%\336@\345\277e\302x\r%\013\360?4\323q\350\240f\347?\346q\365K\010}\374\277\276\362\371\357\032\366\333?G\374M]\316\232\373?\263\230j\274\347\343\347?\203\341d\324\247c\361?&\037\365\025\221-\305?\270l\244\034\261\371\343?J\272S#\321\305\322\277!K\273\265\307\027\311?\324\241s3OG\347?\3046\004?\334\'\330\277\332\206\243\304d^\371\277\216\363\217\334\262x\354\277\362\347\321\300\201\254\362?oU\2620\021^\260\277\024\002\321h5\021\350\277\236&\227\331)\212\313?\200\236\355\307NZ\364\277>\270\362\303as\334?,h=\316\314H\300?\352\215\372\221\261y\357?\263\230j\274\347\343\347?\310\n>\237\245=\324\277H\325t\334f\244\323?\277\252.\n;\017\365?oU\2620\021^\260\277\027a\374p\214!\345\277\277g\010H\215\373\332?\256\202\345\327u\003\300\277\363x\224\024\362\270\361\277\014\014\022a\213\342\355?\216\363\217\334\262x\354\277\242\034\005\227(\303\362\277\353&\022\202~\375\244\277\014\014\022a\213\342\355?\326\311\3127\332|\234?3\372\343\256Ps\361?\333_\312C\375g\341?q\311~\220\3060\363\2778\234\221\373\006\007\001\300\366W\363\371$\276\345\277\021\030\264\270P\006\352\277V\211\361\256v\335\345\277k\000j\265f\n\357\277\333\376\032K,\362\253?<>\246\002u\204\336\277,\323\317SJ{\301\277\331\365\340p\364Q\372?6\275\216\230\205q\345?z\361%.5Q\342\277%~6\216\3641\375?/\3777\210\327P\353?\037\370\340\272\2125\365\2779\247\253Hj|\343?r\"\331\354:/\362?\305\253\022\227N-\327\277\261\256M\014\003\331\351?\310R\t\205\205$\373\277\";X\307\343>\362?\033\300\'y\3431\342\277G`f\204\364\236\324?\277\306\342\0059\026\365\277\275}\353\227\250\360\334?*\363.vZC\301?\031\023\261)u\036\343?\271\341\262t#\377\342?b\355\374\264\236\302\267?f7\356\037O\372\374\277\267\367\225\304>\364\344?\034w\201U\376\001\315?\373+-Z\356\323\341\277d\302\337\307\334\364\375\277\215Ati\022\222\320\277\374\245\340\325\222\254\335?\313\364ZO\212H\322\277\314&C\345N:\367\277C`\025:I\251\361\277\337\224\201\021\007\307\256\277\340\317\353|\240y\364\277\356\354%\232\010\212\354?\357a4\362z\217\353?\204\236>\022\372O\327?\252(_\363P\306\357\2774o\362\006\303x\360?\230\330\251\375\273\233\343?\377\377\315to\323\333\277G[(\033z\265\325\277\207\370+\261\326v\325\277\036W\"3\3569\315\277\373\363\304b\362\305\341?C`\025:I\251\361\277 \255U$\217\300\000\300\231\315\3532\n\226\371?\346q\365K\010}\374\277_\003\340\004\272\267\271?\275x\255..\007\336\277\332\352\273\353\212b\342?%\252\346\275\036(\306?\n\035P\215t\004\323\277)t\244K\363j\304\277\344\311\321$Y<\236\277K4\007\237u\236\356?v\332\305\013\276\'\374?u\345\203\326o-\346?\325\262id\233H\375\277\312\177L\367\027C\323\277\212\237\"\237\rn\371\277\204\236>\022\372O\327?\255\r\327\177\003\376\300\277_d\366\267B\027\275\277;-\260\321(\203\370\277\021\230\200\333t\021\363\277\305\253\022\227N-\327\277\351)\037.\"\034\000\300EvI\324\017\224\326?\262\277\334\202\227\360\361?\302\tZ\022\222\037\362?\355\257\1779\222\222\355\277\035\252D)\310<\340\277\362\347\321\300\201\254\362?\300\334\026\240\377\000\332?M\341}\356\343\261\355\277\234\267\010\343\356\240\367?\032\210\277\201\347#\342?njS\210o \366\277\035\252D)\310<\340\277:\034\272\240\334\201\342?!K\273\265\307\027\311?.&\252N\207]\365?\340\017R\2162\377\000\300\004\034l\000a\346\360?\360r\303h\017\247\363?>\270\362\303as\334?\262f\202&#\362\362\2771,{\372io\363\277\235\261\210\201\267\204\314?9\337\023@f\212\343\277]z\331\007^\014\277\277\221\032S\355\r{\351?IJ\2034\331\251\322?J\272S#\321\305\322\277\325Y\250Mo`\360\277O/\263\305\356\300\364?\326\'x\274\rN\374\277\276\355\273\206\240\014\335\277\311\017|\010 \'\323?R\362]\257#\277\350?,\323\317SJ{\301\277k\000j\265f\n\357\277\333\337\375 \331\\\370?t\014]W\327#\376\277k\366\206(\272M\263\277\306%_X;\034\325?\267\367\225\304>\364\344?\214\314e\021\240\214\321\277\256\207\212\373\247\326\354\277\362\347\321\300\201\254\362?*\351\262\243ep\303\277\361KQ\242_\232\351?K/b{C\313\321\277\305\017+\276t1\360\277\211*\024G\233h\372\277\344\246\216\013\277\035\244?/\3777\210\327P\353?\312\204\212`\222,\322?E\0221\255\351\217\375?\237\221)_\247\274\314\277z\361%.5Q\342\277T\003\355%\270\326\360?\030\326\n\311\376&\344\277\007I\013\365\244t\001\300\240\020\264\211\016\225\311?\373+-Z\356\323\341\277J\277\221\214K\257\321?\210rxr\303e\323?\351\235\013\205\"R\232\277A\027\036\314\270\203\331?K/b{C\313\321\277\375]\025\360\262\305\366?J\277\221\214K\257\321?\354\236\211\010F\221\367?$%\3341\2003\376\277\305\363v\302v*\360?\207\375i\032Q`\324?\313\2614\215\3344\370\277\205\313\350>DX\375\277eL(\275\365\322\264?\317\3159\323\2051\353?qI\262m\242%\352\277\025\264\205!\036\016\346?\325\226\265h\235A\375?Y\245\232rnj\000\300g\254\374w\301\377\373\277\013\222^\345\346\t\322\277-\025\033\330\362E\355?\360\372K\342G\023\241\277\226\356\214M\327\220\345?u(\252\230\035A\360\277|\333\251\230\321E\336\277\017\222\257/\222\377\364?%\232\352\211\3628\375\277.\212)0eK\354?\234o=\375\016\272\340\277\273\216)\304\221\022\342\277\327\000\237;\246W\344?\264\ry\024Z\351\346?f\"M\310\3607\267\277_\003\340\004\272\267\271?Ys\016_[\350\343\277U\024\343V\004\330\346\277\027)\224y\220\023\345?\234o=\375\016\272\340\277\301\224K\272\037\032\363?\324\331\333*KU\347\277\2609?\264\220\323\352?\321\372|E\030P\363\277\276\355\273\206\240\014\335\277tpu~\375\'\347?\271}\232M\375\372\371\277&\212\207\233\016`\306\277\326N\352\202\275Z\346\277\225\025f\316>\207\375\277\036\354\217\255p\007\314?3\226\313\207*o\350\277\001\010\263\230E\374z\277\277g\010H\215\373\332?\275xFtv\035\340\277\333\373\261\034\327c\370\2772\351T8\274[\351?\036\354\217\255p\007\314?u\345\203\326o-\346?\013\222^\345\346\t\322\277\004\331E>\263\322\326?\372\266\036\002|\316\342\277\262#\\du\336\350?\266\202\207l\314\356\345?2!\275/\270i\351\277\200\2029\314PS\364?N\036$OZ\251\354?\300;\361]\253\033\364\277\030\326\n\311\376&\344\277\374\245\340\325\222\254\335?Y\272\227L~\234\276?,\240\014\200\200@\356?\252#\272\317\036\363\302\277\236\375?\240c8\002\300;\311\227\252\002\177\337\277\363\\\340\030\364\261\361?~U\366Y\2764\334?\364m\326I@\263\347\277\030:\212\252\334\024\373\277\n\"\216\366\356\355\321?\303\3063P\344\013\330?<\206\n.\235\201\367?0\367\322\263\211\357\000\300\226X\201X\346 \002\300\256\202\345\327u\003\300\277acM\005\316\372\362?H\3206s\354\272\324\2776\275\216\230\205q\345?\236&\227\331)\212\313?4\323q\350\240f\347?\204Vs,\032i\360?\343\022c\211\371\202\361?Y\272\227L~\234\276?0tF\340IV\352?\314\246v\302*/\356\277\0012OP|\333\362?\335\3507\373\020\375\251?D\271o\226\275\247\360?I[\035\343s;\000\300$%uw\310I\360?\277b\312\336\022\022\334\277\017.\227\010l\373\353\277V\321\274\224V\304\374?\247\316\n\232\274\265\303?\177\305\306H\266P\334\2779\247\253Hj|\343?\344h\273q\320\334\252\277\240\213BC\270\266\363?\306 !\357\3002\326\277\020\007\276\207\004\005\364?AZD\216f\227\363?\255O\"\004\254\310\354?]\253\307\240\002\354\366\277\3563rK\375&\215\277R5\204q\321\322\362\277{.\314\216\253H\341?\300\334\026\240\377\000\332?\002\357(\216\316\307\330?\031K\031!q,\343\277\331u\255\223\030]\343?\013\222^\345\346\t\322\277W0\214\032\374d\001\300B\317R\346\330\234\362?\321BH+\3706\352?\300\037=b\255\024\364?j\201x\320GH\264\277|\243\332\346\035N\340?cb\013\r\021\310\266?\\\232\321o\266\352\340?\330\024\376\232G\347\255?\3645nRD\245\347?\337Z\335$.t\365\277,XA\232\240Y\367\277\307\232m\260\255!\324?\344\207\330\233#r\376\277lk\225\200,S\262\277\275xFtv\035\340\277B\207\356\272\260\237\331\277\014\007m=Y\017\321\277\200\2029\314PS\364?\217\314\266[K\202\364?\321z\260\"\364D\352\277\324=\364QqY\360?J[ye%\253\370?\3131hj\270)\357\277\200\2029\314PS\364?_y0U\351\357\364?O\2232\247\314\256\353?e\255>p~2\270\277\364\321\356pf\267\360?\334p\300tIi\367\277\275\334\305UT\013\367\277\244\352mK\017\307\360?\274\0038\034\004\030\341\277\345\374\346\363\225w\375\277\001z\0326\\\302\331?\n\332)\313\306\360\370\277\245_\343]9\266\375\277`x\356\\,\275\270?CDa>K\242\361?\212\203n\243\017g\371?A\022\340b>\232\332\277:\034\272\240\334\201\342?\007{\376\302o\340\373\277\037\334,\277\214.\365?\020c\330\224\224\221\000\30072\235\360\367v\344?4oY\301zb\376\277\322o\213\235\212U\362\277\024?w\311\253\010\347?G`f\204\364\236\324?Q\031\320u\323\313\362?\212WW\271-\207\322\277\312\177L\367\027C\323\277|\243\332\346\035N\340?\030\326\n\311\376&\344\277\21706=)p\353?\326\311\3127\332|\234?~P\270\360CK\335\277C\001;|\235\216\327?\247\304\216\307\307\342\305\277\003_\371|\306\343\330\277\225y~\365d\213\346?\326\213\220\3433R\345?f\3016\025h\330\263?\201\257\343\370\232[\332\277l=\020\026\335\001\356?\005I\026-\253\356\326\277\270\354\327\371\214\356\372?\273\216)\304\221\022\342\277\024\202\235\213Y\034\361\277r\276\300\305\024+\351\277\003\303\021\244\354\347\361\277bN\023h\'\"\273\277T\237\324\376\221\322\347\277vZ\222.\3422\345?t\360\250[\331\034\376?\351z\310k\2103\240?J\272S#\321\305\322\277*\363.vZC\301?[\032\005M\222\337\367?`\356>\255[\365\363?eL(\275\365\322\264?\351)\037.\"\034\000\300\177\305\306H\266P\334\277I\346j\r\263\245\371?\320i\272\361\247C\364?\245\332q\027\343\327\307\2775\344g\031\355g\375\277\344\207q\341k\210\360?\242\360Tg\376\314\311\277#5\330e\254\"\307?\233\372.\245\234\264\341\277\376\322#H%\313\365?`\n\363\250Y\374\363\277\2347\325\005\023\254\340?\006\352;o\377\323\374?Q\300u\031_\315\363\277\262#\\du\336\350?\025\264\205!\036\016\346?\021\230\200\333t\021\363\277;\316\325\023}h\336?D\325#\222\273\256\360\277i\014jx\325B\265\2772\205\325V\336m\362?_y0U\351\357\364?\035g\036g\032)\366?\001u\334\314\341\330\332\277\323\344\231\365\374Z\361\277ME\226\025\n\266\366?b\330[]@\000\362?|f4\206\247V\341\277l\331\2204\377\023\367?\000\331\364\363\007\335\363\277vZ\222.\3422\345?<\006\327P\301\214\340?\031\023\261)u\036\343?\'hS>\331<\373? m\357\022\375:\364\277\317\3159\323\2051\353?<\006\327P\301\214\340?cM\321oj\357\376\277\2609?\264\220\323\352?\023fPJ\023\377\376\277\346\220\253\273\243(\242?\01033\335\217\371\324\277\nZ]\250\242\345\357\277\315\033\205\032\2354\355\277\355w\027B\226\204\355?\344ExX6\276\220?\033}\001\2675\036\370?\315\177\235A\3038\366?\020k=i\342\362\352?\272\362\250\245o\000\371\277jS\363e\370\366\357?L4\240\344\275\264\320?\216\273\'\345\266j\354?\306 !\357\3002\326\277\330\024\376\232G\347\255?\371A\020\252\t\311\343\277@\001\3521\362\230\364\277u\014\366\234\037:\360?EvI\324\017\224\326?m\262\036nO\007\355?\234\247\014\257\302\261\316\277\263\333\220~\225\367\361\277$%uw\310I\360?^\004\"\375v\352\365?Y\260\264\277\321\337\342?\237\233\2451\234\217\312?A\022\340b>\232\332\277\344\246\216\013\277\035\244?!\306Ioq9\363?O\313\232\236\310\274\353\277-\025\033\330\362E\355?\364m\326I@\263\347\277IJ\2034\331\251\322?\306 !\357\3002\326\277\331\021\225l\362X\372\277L\320\207\275\227\260\367?\21706=)p\353?\262\277\334\202\227\360\361?\370\314\001R\227\303\344\277\316\233Q=\301?\366\277\212\347\206\3125k\322?\n\"\365\260\246\327\357?\361\016\253A\351\242\352\277\252\214w\032w\312\370?;\021\374\325*|\370?YL\234\230\253\333\371\277\216\273\'\345\266j\354?\3046\004?\334\'\330\277\344\311\321$Y<\236\277\236&\227\331)\212\313?9\247\253Hj|\343? m\357\022\375:\364\277\374\004\273\223>\307\367\277s3\317\035\2070\350\277\276\362\371\357\032\366\333?\375\032\357-\005\262\334?\366\037\213\002)\260\345?\360\326BJ\355\224\352?}\333B\336\031\\\340\277\031K\031!q,\343\27772\235\360\367v\344?\223+I\036Z|\377\277X;\246g_\332\343?:Y\307\273\nc\337?\2601\332\337Br\000\300\242\000Q\233*\274\362?\237\0264\353E\261\364?\323\310\345\371\376S\361?\231R]y`t\317?\022\215\302\020\303\013\351\277\236\034\033\0075\267\315\277\244\352mK\017\307\360?e\302x\r%\013\360?S\216\336\315E\321\361?X\273\331D;\317\372?;\316\325\023}h\336?\265\251`\3553\345\375\277\244C/b;\257\375?\2332\376VP\254\317\2773^c\220.a\350?\326\013\304\300\017G\374?\234<z)E\177\315?;\316\325\023}h\336?\357\231\234\351v\235\353\277G\030\002Y\314\241\373\277\251C\031\362.\273\302?\324=\364QqY\360?\272\031\033l\037\r\343\277Q}OW\261\271\351?F\353W,\202\231\325?++\376\'\016;\357?~\r+t\336M\365?\017\222\257/\222\377\364?\";X\307\343>\362?\263[\304[q\354\350\277z\271\27569C\342?Z\245\366\364\037\332\370?72\235\360\367v\344?\"W\014\303\341E\362\277\001z\0326\\\302\331?^\357\347_\320\021\276\277\301\224K\272\037\032\363?4o\362\006\303x\360?N\036$OZ\251\354?\375]\025\360\262\305\366?\342~\236\301\353\321\254\277\323\310\345\371\376S\361?\234\323\274\336\354\247\367\277E\346\031\303\007\260\326\277\311\307\027\335\367)\372\277\205\313\350>DX\375\277\325\026\202\213\301L\346?\205\2574CFQ\375?\342\274q[\332\022\246?\367\333\345\013\220R\205\277eL(\275\365\322\264?B\214,$+\211\330?\006\276$\205\035\364\325\277\206@\367\226\266]\374\2773\372\343\256Ps\361?\001u\334\314\341\330\332\277\\\232\321o\266\352\340?\244\006\"G\r\316\360\277#+\\\223\267O\311\277g_\371\225\275UQ?\201\257\343\370\232[\332\277\361KQ\242_\232\351?\221\032S\355\r{\351?Z\350\034\267\315\355\342\277\363\370\307\361\315\255\350\277G[(\033z\265\325\277\221]y\257\273\216\363\277\3730\322} \247\336?\231\020\022\365\267\251\343\277\202$\362P\ra\331\277\322S\327\241\214N\362?\220\350jWI\211\364\2778j\005\350\363\204\344\277\234\323\274\336\354\247\367\277~P\270\360CK\335\277;\311\227\252\002\177\337\277\365Fd\203\220\246\375\277\212\\\374\334_Z\357?\211\342Ha\273\201\323\277|#\016\304\371B\367?\0254\271\376\371\002\375?\356\244Z\264(\243\365\277\305\260P\000\311\026\326?\024?w\311\253\010\347?~\r+t\336M\365?Ys\016_[\350\343\277\260q\247\253\214\341\352\277yD\257\336\306=\343?\323\344\231\365\374Z\361\277\357\375\264\020\235\241\364?`\356>\255[\365\363?d\327\031e\203\315\265?x\007\t~PF\344\277e\255>p~2\270\277>(\303\262Y\217\334\277kd\202\334\214\016\370?\374\245\340\325\222\254\335?\004\324\007\3258\351\327\277]\031\303T\325\254\273?\242\000Q\233*\274\362?\276Q\324\255\306\020\366\277\305\260P\000\311\026\326?\320\205n\355\245J\364\277\221\335\254\214\227\203\352\277\3106U\211\207\035\373?;\221\310\370N\207\341?\'\224\003n\0033\304?\334T\014yKb\367?P\244\301\035a\306\363?\263\230j\274\347\343\347?n\'-\306\301\014\354?Z%\303\027D\345\341?)t\244K\363j\304\277\257\3040\\\036\316\353?*n$\352\273N\371\2775\200\3507\017z\346\277\232\351\237.\010\235\371\277\220\245D\225\233u\352?\300;\361]\253\033\364\277\252\360\366\373T\270\357?\374h\323\272d\313\340?\356qE\345\353g\226\277e\255>p~2\270\277B\214,$+\211\330?\355\020/2c\010\243\277\177\305\306H\266P\334\277,XA\232\240Y\367\277\0169U\323\035\001\366\277\242u\306\255T\253\377\277Z%\303\027D\345\341?\275x\255..\007\336\277\230t\221\326\225\227\372\277\2509\235\037:\350\304\277\372\273\303%\256\241\337?\303\301\365\346i\"\331\277\355\023\230`\270\226\366?\322\267V\203j<\351?0\233\270\246\371b\364?\322\267V\203j<\351?\222R\273\344\t\211\351\277\231R]y`t\317?\373+\224\024\246\275\337\277\356\354%\232\010\212\354?Q}OW\261\271\351?`JY\272\353\201\000\300\272V\301\314\225\004\342?\275}\353\227\250\360\334?\330\234\206\024\200S\373\277\247\304\216\307\307\342\305\277k\366\206(\272M\263\277\272\362\250\245o\000\371\277]\031\303T\325\254\273?:\034\272\240\334\201\342?\362\003\206\274\177\263\362\277j\357s\204\032\t\371?\037\370\340\272\2125\365\277\275xFtv\035\340\277\251\027i\302\004\305\371?\353&\022\202~\375\244\277\032$\247Z\301\037\371\277\355w\027B\226\204\355?\333\376\032K,\362\253?\315\177\235A\3038\366?\002N\003Lz\342\362\277\003\247]\250\356\340\361?\243u_\363\234\301\361?%\025yC\234Z\307\277(\377\225\363\200e\305\277CD\310\370\002\214\377\277\277\006I\027\313\233\001\300\203)0\272\207J\330?\232\351\237.\010\235\371\277\343\022\312C\261l\377\277\004\324\007\3258\351\327\277\303\301\365\346i\"\331\277\2765 \262\310\t\366?\200?\023\n\243?\332?\274\0038\034\004\030\341\277D\271\326Pu\221\376\277\322S\327\241\214N\362?\001u\334\314\341\330\332\277}\230\034\034lH\366?\317\220\223r\017:\354\277\316X+{\023,\354?\377\377\315to\323\333\277:T\"\230\330\217\342\277\242\360Tg\376\314\311\277\245\332q\027\343\327\307\277\005\221\341\022\213\325\375\277\235H\3136_\255\366\277d\327\031e\203\315\265?yD\257\336\306=\343?_\225\344P\347\366\364\277\206$C\233\270V\374?\332\"$\343\206p\342\277O\2232\247\314\256\353?\207\375i\032Q`\324?l=\020\026\335\001\356?\243\372\3209\363\237\307?e\302x\r%\013\360?c\303!\300\231\'\272\277\320i\272\361\247C\364?\374\240\242l\030\303\336\277l=\020\026\335\001\356?d80\030\014-\271\277\263\230j\274\347\343\347?N\326Xiz\302\365\277\256\353\242\"\316\332\365?L\251\025\367\347\243\355?pTp8T+\364\277tpu~\375\'\347?\3308\0073\242e\344\277VQ\211\267z\317\345?\335\3507\373\020\375\251?B\214,$+\211\330?\n\"\216\366\356\355\321?\'\335\005\024\232\322\001\300\244\352mK\017\307\360?\03456\321U7\341\277^\357\347_\320\021\276\277\032\210\277\201\347#\342?\2644\353\332\t\366\360?\001z\0326\\\302\331?\324=[\014)C\376\277\\\244\264\374b\247\274?J\277\370F\003\231\357?\027)\224y\220\023\345?d80\030\014-\271\277\277b\312\336\022\022\334\277~P\270\360CK\335\277`\n\363\250Y\374\363\277\374h\323\272d\313\340?\376\212\277\034\375\315\334\277S*\306\246\037\315\350\277\312\204\212`\222,\322?\006\276$\205\035\364\325\277j\201x\320GH\264\277\265E\341\013V\367\346\277\244o\337\221e\245\306?U\334z_\010\312\346?\240\0068\267\031\302\313\277\033\375\315\331Y)\341?r\"\331\354:/\362?b\330[]@\000\362?E\346\031\303\007\260\326\277\324\331\333*KU\347\277\326\213\220\3433R\345?\215F\031\215De\355? Q;\027\3773\364?\255\222H\306Y\334\366\277\r\201 \271\375\347\354?\207\370+\261\326v\325\277)~ \036\350=\302?O\2232\247\314\256\353?\276\362\371\357\032\366\333?\272V\301\314\225\004\342?=\263\264Z\347\211\335\277tpu~\375\'\347?Ys\016_[\350\343\277,<\215\236\242R\367?\306%_X;\034\325?\361\216wd\r\256\363\277\010\324X\037\344\336\372?\230\330\251\375\273\233\343?R\362]\257#\277\350?\243u_\363\234\301\361?\264P\237\326\007\375\360\277\005NT\226%\330\325?\262\277C=O\332\377\2773\226\313\207*o\350\277\331\255\025\213\024k\343\277\271\036\300\217Q\340\337?\265\305\255.z\002\360\277y|\027\326\302K\343\277g6Em\332\335\262?\234o=\375\016\272\340\277\355\020/2c\010\243\277\373\363\304b\362\305\341?\207\231Q\363*\\\373?x\317\240\206T8\344?/\3777\210\327P\353?\267\367\225\304>\364\344?\317\364\253\2315>\365?\317P\306\246\305\312\001\300\304;B\250V\021\327?%A)s\306P\360\277\313\371\230\270\0042\321?\225\371\261\322@\200\375?:Y\307\273\nc\337?S\252\222\311C\330\361\277\210m:\tI|\324\277\232\205 M*\257\342\277\226n\300*\263\205\374?\014\007m=Y\017\321\277+\3432B.T\370\277\272\216\220~I\374\337\277\264\ry\024Z\351\346?\267w\311\241\032\351\373?^\357\347_\320\021\276\277\237\0264\353E\261\364?\344\311\321$Y<\236\2772\205\325V\336m\362?(\t\022\306u8\303?\307\225/G38\325\277\247\316\n\232\274\265\303?\362\300_\372\321\237\350?\237\233\2451\234\217\312?\r\201 \271\375\347\354?\227c\233\245I\226\344?\013\227\003\t\031\335\356?g\254\374w\301\377\373\2775\310\263\035\357`\375?\024\333^\242\205\004\376\277Dq\013k\225\252\327\277\0133\204\';\357\367?\031\023\261)u\036\343?\265E\341\013V\367\346\277e\255>p~2\270\277\330\024\376\232G\347\255?\254\230\310\'\221\370\301\277\022\215\302\020\303\013\351\277\034w\201U\376\001\315?\254\332\023\2549\303\355?\357a4\362z\217\353?\261\346\265\003\377\346\351\277\223G\226_\240\231\361\277\221A\305\263\275\207\363?\346R\330!\265\347\250\277f\"M\310\3607\267\277\367\224\231Z\233\265\344?\034r\3341\314.\340?\013\222^\345\346\t\322\277\224\004p\235\362\205\347?(\204\007:\327C\373\277/\3777\210\327P\353?\243\372\3209\363\237\307?\267\367\225\304>\364\344?&\017\371\341d>\374\277\356\210\246\270*\234\365?[/\246\244\360\241\275?G`f\204\364\236\324?\321z\260\"\364D\352\277\270l\244\034\261\371\343?\332\352\273\353\212b\342?,\330tw|N\356\277\010\360\014\033\342\345\372\277,\330tw|N\356\277[/\246\244\360\241\275?IEE\313^\300\323\277\r|{\225\313\024\320\277\034\362\017\017\250#\367?\326\213\220\3433R\345?\204\236>\022\372O\327?\215\342\231\253fw\366?\01033\335\217\371\324\277$\314\032\033TK\361\277\315\336w\377nS\320\277<C\344k\357m\335?\216s\\\377\326\203\365\277j b\035\277\350\260?{\312\263g\205D\370\277y\304\342\273\2422\372?!A?\343\322D\313\277\n\332)\313\306\360\370\277\275@\336|z\017\340?\362\300_\372\321\237\350?\341(F\331\024x\363?\344\207q\341k\210\360?;\311\227\252\002\177\337\277\254\230\310\'\221\370\301\277\244o\337\221e\245\306?>\214\333\331\177\223\365\277<\006\327P\301\214\340?\305\260P\000\311\026\326?q\255\312\224\310)\363?\376\356\327C#\322\365\277\303~\317$\274\016\377\277\231R]y`t\317?o\303\255\344\343\036\365?$\240j\353)U\310\277MaJ\021\010\275\366\277\034m\005\203\t/\317\277\272\216\220~I\374\337\277\356\244Z\264(\243\365\277\003\247]\250\356\340\361?\r\304F{\253\373\366\277\307\225/G38\325\277\323\310\345\371\376S\361?\t\255\177\236|\350\322?[]+\017@\363\341\277i\014jx\325B\265\277\305\260P\000\311\026\326?0tF\340IV\352?\236\241%\223\323\253\365?\023\312hq9\003\350?\317\364\253\2315>\365?\314\n\217\351P3\367?\025\333\367\347\315\032\360?0tF\340IV\352?-\025\033\330\362E\355?\255v\224\312[\325\366?T\003\355%\270\326\360?\311\017|\010 \'\323?\362\203\271\231[\250\351\277\354:q\341\037\215\356\277T\\\256<\344\276\375?x\007\t~PF\344\277\364\321\356pf\267\360?\027\305{Rj\017\374\277u\345\203\326o-\346?>(\303\262Y\217\334\277\271\036\300\217Q\340\337?t\014]W\327#\376\277\242\205\302\341\200\232\310?\016\035\241\327\037\372\365?\370\245\217\213\347\266\372\277\004\034l\000a\346\360?:Y\307\273\nc\337?\214\314e\021\240\214\321\277\270\244\014\024\255\007\344\277\306\301F1\025\030\374?\n\035P\215t\004\323\277P\010A\377>\264\352?(\377\225\363\200e\305\277a\177\001\001\314\001\363\277:T\"\230\330\217\342\277\351z\310k\2103\240?\273\313\317$\010\n\341?\333\2272;\371u\341\277%A)s\306P\360\277O/\263\305\356\300\364?\027a\374p\214!\345\277\324=\364QqY\360?\341\204`\346\244\004\000\300\025w\337\300\247\026\347\277\274\003\237\326\273\001\337\277\221\032S\355\r{\351?\031K\031!q,\343\277\001\010\263\230E\374z\277p8\274<V$\364?\032$\247Z\301\037\371\277\322\267V\203j<\351?h\227[ 